{
  "version": "1.0",
  "truncation": null,
  "padding": null,
  "added_tokens": [
    {
      "id": 0,
      "content": "[PAD]",
      "single_word": false,
      "lstrip": false,
      "rstrip": false,
      "normalized": false,
      "special": true
    },
    {
      "id": 1,
      "content": "[UNK]",
      "single_word": false,
      "lstrip": false,
      "rstrip": false,
      "normalized": false,
      "special": true
    },
    {
      "id": 2,
      "content": "[CLS]",
      "single_word": false,
      "lstrip": false,
      "rstrip": false,
      "normalized": false,
      "special": true
    },
    {
      "id": 3,
      "content": "[SEP]",
      "single_word": false,
      "lstrip": false,
      "rstrip": false,
      "normalized": false,
      "special": true
    },
    {
      "id": 4,
      "content": "[MASK]",
      "single_word": false,
      "lstrip": false,
      "rstrip": false,
      "normalized": false,
      "special": true
    }
  ],
  "normalizer": null,
  "pre_tokenizer": {
    "type": "Whitespace"
  },
  "post_processor": null,
  "decoder": null,
  "model": {
    "type": "WordPiece",
    "unk_token": "[UNK]",
    "continuing_subword_prefix": "##",
    "max_input_chars_per_word": 100,
    "vocab": {
      "[PAD]": 0,
      "[UNK]": 1,
      "[CLS]": 2,
      "[SEP]": 3,
      "[MASK]": 4,
      "\u0000": 5,
      "!": 6,
      "\"": 7,
      "#": 8,
      "$": 9,
      "%": 10,
      "&": 11,
      "'": 12,
      "(": 13,
      ")": 14,
      "*": 15,
      "+": 16,
      ",": 17,
      "-": 18,
      ".": 19,
      "/": 20,
      "0": 21,
      "1": 22,
      "2": 23,
      "3": 24,
      "4": 25,
      "5": 26,
      "6": 27,
      "7": 28,
      "8": 29,
      "9": 30,
      ":": 31,
      ";": 32,
      "<": 33,
      "=": 34,
      ">": 35,
      "?": 36,
      "@": 37,
      "A": 38,
      "B": 39,
      "C": 40,
      "D": 41,
      "E": 42,
      "F": 43,
      "G": 44,
      "H": 45,
      "I": 46,
      "J": 47,
      "K": 48,
      "L": 49,
      "M": 50,
      "N": 51,
      "O": 52,
      "P": 53,
      "Q": 54,
      "R": 55,
      "S": 56,
      "T": 57,
      "U": 58,
      "V": 59,
      "W": 60,
      "X": 61,
      "Y": 62,
      "Z": 63,
      "[": 64,
      "\\": 65,
      "]": 66,
      "^": 67,
      "_": 68,
      "`": 69,
      "a": 70,
      "b": 71,
      "c": 72,
      "d": 73,
      "e": 74,
      "f": 75,
      "g": 76,
      "h": 77,
      "i": 78,
      "j": 79,
      "k": 80,
      "l": 81,
      "m": 82,
      "n": 83,
      "o": 84,
      "p": 85,
      "q": 86,
      "r": 87,
      "s": 88,
      "t": 89,
      "u": 90,
      "v": 91,
      "w": 92,
      "x": 93,
      "y": 94,
      "z": 95,
      "{": 96,
      "|": 97,
      "}": 98,
      "~": 99,
      "": 100,
      "": 101,
      "": 102,
      "": 103,
      "": 104,
      "": 105,
      "": 106,
      "": 107,
      "": 108,
      "": 109,
      "": 110,
      "": 111,
      "": 112,
      "¡": 113,
      "¢": 114,
      "£": 115,
      "¤": 116,
      "¥": 117,
      "¦": 118,
      "§": 119,
      "©": 120,
      "ª": 121,
      "«": 122,
      "¬": 123,
      "­": 124,
      "®": 125,
      "¯": 126,
      "°": 127,
      "±": 128,
      "²": 129,
      "³": 130,
      "´": 131,
      "µ": 132,
      "¶": 133,
      "·": 134,
      "º": 135,
      "»": 136,
      "¼": 137,
      "½": 138,
      "¾": 139,
      "¿": 140,
      "À": 141,
      "Á": 142,
      "Â": 143,
      "Ã": 144,
      "Ä": 145,
      "Å": 146,
      "Ç": 147,
      "É": 148,
      "Ê": 149,
      "Í": 150,
      "Î": 151,
      "Ñ": 152,
      "Ó": 153,
      "Ô": 154,
      "Ö": 155,
      "×": 156,
      "Ü": 157,
      "ß": 158,
      "à": 159,
      "á": 160,
      "â": 161,
      "ã": 162,
      "ä": 163,
      "å": 164,
      "æ": 165,
      "ç": 166,
      "è": 167,
      "é": 168,
      "ê": 169,
      "ë": 170,
      "ì": 171,
      "í": 172,
      "î": 173,
      "ï": 174,
      "ð": 175,
      "ñ": 176,
      "ò": 177,
      "ó": 178,
      "ô": 179,
      "õ": 180,
      "ö": 181,
      "ø": 182,
      "ù": 183,
      "ú": 184,
      "û": 185,
      "ü": 186,
      "ý": 187,
      "ā": 188,
      "ă": 189,
      "ą": 190,
      "Ć": 191,
      "ć": 192,
      "Č": 193,
      "č": 194,
      "ė": 195,
      "ę": 196,
      "ğ": 197,
      "ī": 198,
      "İ": 199,
      "ı": 200,
      "ł": 201,
      "ň": 202,
      "ŋ": 203,
      "ō": 204,
      "ő": 205,
      "œ": 206,
      "Ś": 207,
      "ş": 208,
      "Š": 209,
      "š": 210,
      "ţ": 211,
      "Ŧ": 212,
      "ū": 213,
      "ű": 214,
      "Ÿ": 215,
      "ž": 216,
      "ſ": 217,
      "ǎ": 218,
      "ǐ": 219,
      "ǒ": 220,
      "Ș": 221,
      "ș": 222,
      "ț": 223,
      "Ⱥ": 224,
      "Ȼ": 225,
      "Ƚ": 226,
      "Ⱦ": 227,
      "ɐ": 228,
      "ɑ": 229,
      "ɔ": 230,
      "ə": 231,
      "ɛ": 232,
      "ɡ": 233,
      "ɥ": 234,
      "ɨ": 235,
      "ɪ": 236,
      "ɬ": 237,
      "ɯ": 238,
      "ɾ": 239,
      "ʃ": 240,
      "ʉ": 241,
      "ʒ": 242,
      "ʔ": 243,
      "ʲ": 244,
      "ʷ": 245,
      "ʻ": 246,
      "ʼ": 247,
      "ʿ": 248,
      "ˀ": 249,
      "ˈ": 250,
      "ː": 251,
      "˚": 252,
      "˜": 253,
      "̀": 254,
      "́": 255,
      "̃": 256,
      "̞": 257,
      "̟": 258,
      "̠": 259,
      "̪": 260,
      "̱": 261,
      "̲": 262,
      "̵": 263,
      "̻": 264,
      "̽": 265,
      "͡": 266,
      "Α": 267,
      "Γ": 268,
      "Δ": 269,
      "Ζ": 270,
      "Θ": 271,
      "Κ": 272,
      "Ω": 273,
      "ά": 274,
      "έ": 275,
      "α": 276,
      "β": 277,
      "γ": 278,
      "ε": 279,
      "η": 280,
      "θ": 281,
      "ι": 282,
      "κ": 283,
      "λ": 284,
      "μ": 285,
      "ν": 286,
      "ξ": 287,
      "ο": 288,
      "π": 289,
      "ρ": 290,
      "ς": 291,
      "σ": 292,
      "τ": 293,
      "φ": 294,
      "χ": 295,
      "ύ": 296,
      "ώ": 297,
      "И": 298,
      "П": 299,
      "Ч": 300,
      "а": 301,
      "в": 302,
      "г": 303,
      "д": 304,
      "е": 305,
      "з": 306,
      "и": 307,
      "л": 308,
      "м": 309,
      "о": 310,
      "п": 311,
      "р": 312,
      "с": 313,
      "т": 314,
      "у": 315,
      "ы": 316,
      "ю": 317,
      "я": 318,
      "ְ": 319,
      "ִ": 320,
      "ֶ": 321,
      "ַ": 322,
      "ּ": 323,
      "א": 324,
      "ב": 325,
      "ג": 326,
      "ד": 327,
      "ה": 328,
      "ו": 329,
      "ח": 330,
      "ט": 331,
      "י": 332,
      "כ": 333,
      "ל": 334,
      "ם": 335,
      "מ": 336,
      "ן": 337,
      "נ": 338,
      "ס": 339,
      "ע": 340,
      "פ": 341,
      "ק": 342,
      "ר": 343,
      "ש": 344,
      "ת": 345,
      "أ": 346,
      "ا": 347,
      "ب": 348,
      "ة": 349,
      "ت": 350,
      "ح": 351,
      "خ": 352,
      "د": 353,
      "ر": 354,
      "ز": 355,
      "س": 356,
      "ش": 357,
      "ض": 358,
      "ع": 359,
      "ق": 360,
      "ك": 361,
      "ل": 362,
      "م": 363,
      "ن": 364,
      "ه": 365,
      "و": 366,
      "ي": 367,
      "ک": 368,
      "ی": 369,
      "ے": 370,
      "ঈ": 371,
      "চ": 372,
      "ছ": 373,
      "দ": 374,
      "ভ": 375,
      "র": 376,
      "শ": 377,
      "া": 378,
      "ু": 379,
      "ে": 380,
      "্": 381,
      "་": 382,
      "ཀ": 383,
      "ཁ": 384,
      "ག": 385,
      "ང": 386,
      "ཅ": 387,
      "ཇ": 388,
      "ཐ": 389,
      "ད": 390,
      "ན": 391,
      "པ": 392,
      "བ": 393,
      "མ": 394,
      "ཚ": 395,
      "ཟ": 396,
      "འ": 397,
      "ཡ": 398,
      "ར": 399,
      "ལ": 400,
      "ཤ": 401,
      "ས": 402,
      "ཧ": 403,
      "ི": 404,
      "ུ": 405,
      "ེ": 406,
      "ོ": 407,
      "ྒ": 408,
      "ྗ": 409,
      "ྙ": 410,
      "ྟ": 411,
      "ྡ": 412,
      "ྣ": 413,
      "ྨ": 414,
      "ྩ": 415,
      "ྱ": 416,
      "ྲ": 417,
      "ླ": 418,
      "ᐃ": 419,
      "ᑦ": 420,
      "ᓗ": 421,
      "ᖃ": 422,
      "ᵝ": 423,
      "Ḥ": 424,
      "Ḱ": 425,
      "Ḵ": 426,
      "Ṉ": 427,
      "ṣ": 428,
      "ṭ": 429,
      "Ṯ": 430,
      "ầ": 431,
      "ị": 432,
      "ổ": 433,
      "​": 434,
      "‍": 435,
      "‎": 436,
      "‏": 437,
      "‐": 438,
      "‑": 439,
      "‒": 440,
      "–": 441,
      "—": 442,
      "―": 443,
      "‖": 444,
      "‘": 445,
      "’": 446,
      "‚": 447,
      "“": 448,
      "”": 449,
      "„": 450,
      "•": 451,
      "…": 452,
      "′": 453,
      "″": 454,
      "›": 455,
      "⁄": 456,
      "€": 457,
      "₭": 458,
      "™": 459,
      "⅓": 460,
      "⅔": 461,
      "↑": 462,
      "→": 463,
      "↓": 464,
      "↘": 465,
      "⇒": 466,
      "∀": 467,
      "∈": 468,
      "−": 469,
      "∗": 470,
      "∞": 471,
      "∫": 472,
      "∷": 473,
      "∼": 474,
      "≈": 475,
      "≡": 476,
      "≤": 477,
      "≥": 478,
      "⊂": 479,
      "⊗": 480,
      "⊞": 481,
      "⊟": 482,
      "⋅": 483,
      "␎": 484,
      "─": 485,
      "│": 486,
      "┓": 487,
      "└": 488,
      "┗": 489,
      "┛": 490,
      "├": 491,
      "█": 492,
      "■": 493,
      "▥": 494,
      "▧": 495,
      "▲": 496,
      "▼": 497,
      "◊": 498,
      "◦": 499,
      "◯": 500,
      "☆": 501,
      "☯": 502,
      "♚": 503,
      "♡": 504,
      "♦": 505,
      "⛱": 506,
      "✓": 507,
      "✕": 508,
      "✯": 509,
      "✿": 510,
      "❑": 511,
      "❤": 512,
      "➜": 513,
      "⟨": 514,
      "⟩": 515,
      "⦁": 516,
      "。": 517,
      "【": 518,
      "】": 519,
      "〜": 520,
      "〽": 521,
      "あ": 522,
      "い": 523,
      "が": 524,
      "ぎ": 525,
      "く": 526,
      "す": 527,
      "つ": 528,
      "ど": 529,
      "な": 530,
      "ば": 531,
      "ぷ": 532,
      "ほ": 533,
      "め": 534,
      "や": 535,
      "り": 536,
      "る": 537,
      "ア": 538,
      "ィ": 539,
      "イ": 540,
      "ウ": 541,
      "ォ": 542,
      "カ": 543,
      "ガ": 544,
      "キ": 545,
      "ク": 546,
      "グ": 547,
      "コ": 548,
      "サ": 549,
      "ザ": 550,
      "シ": 551,
      "ジ": 552,
      "ス": 553,
      "セ": 554,
      "ソ": 555,
      "タ": 556,
      "ダ": 557,
      "チ": 558,
      "ッ": 559,
      "ツ": 560,
      "ト": 561,
      "ニ": 562,
      "バ": 563,
      "ヒ": 564,
      "フ": 565,
      "ブ": 566,
      "プ": 567,
      "ベ": 568,
      "マ": 569,
      "ム": 570,
      "モ": 571,
      "ャ": 572,
      "ヨ": 573,
      "ラ": 574,
      "リ": 575,
      "ル": 576,
      "レ": 577,
      "ロ": 578,
      "ワ": 579,
      "ン": 580,
      "・": 581,
      "ー": 582,
      "ㅋ": 583,
      "一": 584,
      "上": 585,
      "且": 586,
      "中": 587,
      "为": 588,
      "书": 589,
      "事": 590,
      "二": 591,
      "亞": 592,
      "亦": 593,
      "仔": 594,
      "以": 595,
      "任": 596,
      "众": 597,
      "作": 598,
      "你": 599,
      "侨": 600,
      "保": 601,
      "値": 602,
      "偏": 603,
      "僑": 604,
      "元": 605,
      "充": 606,
      "六": 607,
      "冉": 608,
      "凌": 609,
      "凱": 610,
      "劇": 611,
      "务": 612,
      "北": 613,
      "区": 614,
      "十": 615,
      "千": 616,
      "单": 617,
      "南": 618,
      "博": 619,
      "卻": 620,
      "厥": 621,
      "吉": 622,
      "吳": 623,
      "品": 624,
      "唐": 625,
      "回": 626,
      "国": 627,
      "國": 628,
      "在": 629,
      "域": 630,
      "堆": 631,
      "場": 632,
      "夢": 633,
      "大": 634,
      "天": 635,
      "夫": 636,
      "夷": 637,
      "好": 638,
      "如": 639,
      "娘": 640,
      "嬢": 641,
      "季": 642,
      "宅": 643,
      "安": 644,
      "室": 645,
      "富": 646,
      "察": 647,
      "寶": 648,
      "寺": 649,
      "小": 650,
      "层": 651,
      "層": 652,
      "山": 653,
      "岳": 654,
      "崖": 655,
      "工": 656,
      "布": 657,
      "序": 658,
      "弥": 659,
      "張": 660,
      "录": 661,
      "徽": 662,
      "忆": 663,
      "志": 664,
      "忠": 665,
      "惜": 666,
      "愛": 667,
      "慶": 668,
      "憶": 669,
      "懷": 670,
      "战": 671,
      "捞": 672,
      "故": 673,
      "斜": 674,
      "断": 675,
      "新": 676,
      "日": 677,
      "春": 678,
      "晒": 679,
      "暖": 680,
      "更": 681,
      "木": 682,
      "本": 683,
      "来": 684,
      "松": 685,
      "果": 686,
      "根": 687,
      "桐": 688,
      "棲": 689,
      "極": 690,
      "次": 691,
      "武": 692,
      "殺": 693,
      "民": 694,
      "气": 695,
      "治": 696,
      "泉": 697,
      "渥": 698,
      "湯": 699,
      "漸": 700,
      "濟": 701,
      "火": 702,
      "炒": 703,
      "烟": 704,
      "然": 705,
      "煮": 706,
      "爱": 707,
      "版": 708,
      "珠": 709,
      "理": 710,
      "瑪": 711,
      "生": 712,
      "甫": 713,
      "田": 714,
      "町": 715,
      "番": 716,
      "白": 717,
      "皇": 718,
      "皮": 719,
      "盈": 720,
      "真": 721,
      "碗": 722,
      "祝": 723,
      "神": 724,
      "祥": 725,
      "福": 726,
      "禮": 727,
      "秋": 728,
      "章": 729,
      "筐": 730,
      "简": 731,
      "籃": 732,
      "米": 733,
      "精": 734,
      "紅": 735,
      "素": 736,
      "経": 737,
      "红": 738,
      "级": 739,
      "翅": 740,
      "翼": 741,
      "者": 742,
      "耳": 743,
      "肖": 744,
      "自": 745,
      "艺": 746,
      "芽": 747,
      "苑": 748,
      "英": 749,
      "茶": 750,
      "菉": 751,
      "葉": 752,
      "董": 753,
      "蘅": 754,
      "裕": 755,
      "西": 756,
      "警": 757,
      "话": 758,
      "财": 759,
      "超": 760,
      "路": 761,
      "輝": 762,
      "近": 763,
      "送": 764,
      "遠": 765,
      "郎": 766,
      "部": 767,
      "采": 768,
      "錄": 769,
      "阶": 770,
      "陳": 771,
      "陸": 772,
      "雷": 773,
      "霆": 774,
      "霞": 775,
      "青": 776,
      "非": 777,
      "面": 778,
      "風": 779,
      "飞": 780,
      "馬": 781,
      "験": 782,
      "魔": 783,
      "鴻": 784,
      "麗": 785,
      "鼎": 786,
      "龍": 787,
      "龙": 788,
      "Ꝁ": 789,
      "영": 790,
      "이": 791,
      "호": 792,
      "": 793,
      "": 794,
      "": 795,
      "": 796,
      "": 797,
      "": 798,
      "": 799,
      "": 800,
      "": 801,
      "️": 802,
      "﻿": 803,
      "！": 804,
      "（": 805,
      "）": 806,
      "，": 807,
      "：": 808,
      "；": 809,
      "＠": 810,
      "～": 811,
      "�": 812,
      "🌽": 813,
      "🍁": 814,
      "🍂": 815,
      "🍅": 816,
      "🍆": 817,
      "🍠": 818,
      "🎉": 819,
      "🐸": 820,
      "💜": 821,
      "📷": 822,
      "😂": 823,
      "😃": 824,
      "😉": 825,
      "😷": 826,
      "🙁": 827,
      "🙂": 828,
      "🤔": 829,
      "##s": 830,
      "##n": 831,
      "##o": 832,
      "##e": 833,
      "##t": 834,
      "##r": 835,
      "##y": 836,
      "##b": 837,
      "##i": 838,
      "##a": 839,
      "##m": 840,
      "##d": 841,
      "##c": 842,
      "##k": 843,
      "##p": 844,
      "##l": 845,
      "##9": 846,
      "##6": 847,
      "##0": 848,
      "##1": 849,
      "##7": 850,
      "##5": 851,
      "##f": 852,
      "##2": 853,
      "##4": 854,
      "##g": 855,
      "##v": 856,
      "##h": 857,
      "##u": 858,
      "##3": 859,
      "##w": 860,
      "##8": 861,
      "##O": 862,
      "##U": 863,
      "##I": 864,
      "##P": 865,
      "##Q": 866,
      "##N": 867,
      "##\u0000": 868,
      "##G": 869,
      "##A": 870,
      "##T": 871,
      "##R": 872,
      "##E": 873,
      "##z": 874,
      "##_": 875,
      "##q": 876,
      "##W": 877,
      "##;": 878,
      "##ö": 879,
      "##X": 880,
      "##S": 881,
      "##Z": 882,
      "##x": 883,
      "##É": 884,
      "##”": 885,
      "##j": 886,
      "##K": 887,
      "##م": 888,
      "##و": 889,
      "##ر": 890,
      "##L": 891,
      "##D": 892,
      "##C": 893,
      "##ç": 894,
      "##ã": 895,
      "##F": 896,
      "##惜": 897,
      "##娘": 898,
      "##M": 899,
      "##B": 900,
      "##Y": 901,
      "##ê": 902,
      "##ག": 903,
      "##H": 904,
      "##V": 905,
      "##@": 906,
      "##ł": 907,
      "##ą": 908,
      "##é": 909,
      "##ʃ": 910,
      "##麗": 911,
      "##珠": 912,
      "##ú": 913,
      "##堆": 914,
      "##ñ": 915,
      "##ä": 916,
      "##^": 917,
      "##ó": 918,
      "##生": 919,
      "##̵": 920,
      "##̲": 921,
      "##>": 922,
      "##ю": 923,
      "##л": 924,
      "##я": 925,
      "##)": 926,
      "##:": 927,
      "##J": 928,
      "##\"": 929,
      "##̻": 930,
      "##’": 931,
      "##â": 932,
      "##è": 933,
      "##ß": 934,
      "##,": 935,
      "##.": 936,
      "##í": 937,
      "##!": 938,
      "##̠": 939,
      "##ʼ": 940,
      "##ü": 941,
      "##*": 942,
      "##?": 943,
      "##ī": 944,
      "##": 945,
      "##": 946,
      "##�": 947,
      "##…": 948,
      "##'": 949,
      "##õ": 950,
      "##{": 951,
      "##|": 952,
      "##]": 953,
      "##“": 954,
      "##(": 955,
      "##\\": 956,
      "##+": 957,
      "##-": 958,
      "##[": 959,
      "##á": 960,
      "##α": 961,
      "##™": 962,
      "##ˀ": 963,
      "##█": 964,
      "##∗": 965,
      "##̟": 966,
      "##ʷ": 967,
      "##}": 968,
      "##`": 969,
      "##»": 970,
      "##%": 971,
      "##=": 972,
      "##ר": 973,
      "##ו": 974,
      "##ב": 975,
      "##ì": 976,
      "##י": 977,
      "##ם": 978,
      "##陸": 979,
      "##鴻": 980,
      "##漸": 981,
      "##棲": 982,
      "##霞": 983,
      "##寺": 984,
      "##采": 985,
      "##茶": 986,
      "##ֶ": 987,
      "##ְ": 988,
      "##כ": 989,
      "##ַ": 990,
      "##ּ": 991,
      "##–": 992,
      "##ª": 993,
      "##面": 994,
      "##&": 995,
      "##•": 996,
      "##º": 997,
      "##侨": 998,
      "##回": 999,
      "##忆": 1000,
      "##录": 1001,
      "##": 1002,
      "##": 1003,
      "##ō": 1004,
      "##ǎ": 1005,
      "##ǒ": 1006,
      "##ن": 1007,
      "##ت": 1008,
      "##ň": 1009,
      "##ș": 1010,
      "##/": 1011,
      "##ţ": 1012,
      "##ل": 1013,
      "##ح": 1014,
      "##ز": 1015,
      "##ب": 1016,
      "##$": 1017,
      "##↓": 1018,
      "##Ŧ": 1019,
      "##~": 1020,
      "##བ": 1021,
      "##ྱ": 1022,
      "##ོ": 1023,
      "##ར": 1024,
      "##ق": 1025,
      "##د": 1026,
      "##ي": 1027,
      "##<": 1028,
      "##瑪": 1029,
      "###": 1030,
      "##": 1031,
      "##ā": 1032,
      "##à": 1033,
      "##ë": 1034,
      "##ğ": 1035,
      "##ầ": 1036,
      "##—": 1037,
      "##ח": 1038,
      "##ש": 1039,
      "##ー": 1040,
      "##ウ": 1041,
      "##ィ": 1042,
      "##ン": 1043,
      "##が": 1044,
      "##来": 1045,
      "##い": 1046,
      "##ð": 1047,
      "##二": 1048,
      "##肖": 1049,
      "##ı": 1050,
      "##夷": 1051,
      "##山": 1052,
      "##志": 1053,
      "##Ṉ": 1054,
      "##̱": 1055,
      "##Ã": 1056,
      "##ô": 1057,
      "##如": 1058,
      "##く": 1059,
      "##ű": 1060,
      "##š": 1061,
      "##ă": 1062,
      "##‘": 1063,
      "##ה": 1064,
      "##א": 1065,
      "##ל": 1066,
      "##以": 1067,
      "##火": 1068,
      "##作": 1069,
      "##者": 1070,
      "##为": 1071,
      "##次": 1072,
      "##本": 1073,
      "##木": 1074,
      "##ば": 1075,
      "##る": 1076,
      "##保": 1077,
      "##治": 1078,
      "##γ": 1079,
      "##ώ": 1080,
      "##ν": 1081,
      "##ι": 1082,
      "##ッ": 1083,
      "##ソ": 1084,
      "##ṣ": 1085,
      "##鼎": 1086,
      "##白": 1087,
      "##ū": 1088,
      "##ִ": 1089,
      "##ת": 1090,
      "##č": 1091,
      "##а": 1092,
      "##д": 1093,
      "##в": 1094,
      "##е": 1095,
      "##м": 1096,
      "##ы": 1097,
      "##̪": 1098,
      "##ུ": 1099,
      "##མ": 1100,
      "##ø": 1101,
      "##ş": 1102,
      "##ſ": 1103,
      "##ט": 1104,
      "##ο": 1105,
      "##ρ": 1106,
      "##μ": 1107,
      "##π": 1108,
      "##ά": 1109,
      "##ς": 1110,
      "##̽": 1111,
      "##験": 1112,
      "##ྒ": 1113,
      "##ྲ": 1114,
      "##₭": 1115,
      "##͡": 1116,
      "##Ṯ": 1117,
      "##神": 1118,
      "##室": 1119,
      "##町": 1120,
      "##番": 1121,
      "##区": 1122,
      "##ד": 1123,
      "##ס": 1124,
      "##ק": 1125,
      "##ן": 1126,
      "##☆": 1127,
      "##卻": 1128,
      "##ཚ": 1129,
      "##འ": 1130,
      "##ི": 1131,
      "##©": 1132,
      "##ע": 1133,
      "##ྙ": 1134,
      "##ང": 1135,
      "##域": 1136,
      "##飞": 1137,
      "##龙": 1138,
      "##😂": 1139,
      "##Ô": 1140,
      "##‑": 1141,
      "##أ": 1142,
      "##ه": 1143,
      "##ة": 1144,
      "##ض": 1145,
      "##ع": 1146,
      "##²": 1147,
      "##ا": 1148,
      "##ț": 1149,
      "##λ": 1150,
      "##έ": 1151,
      "##ξ": 1152,
      "##η": 1153,
      "##ù": 1154,
      "##מ": 1155,
      "##ك": 1156,
      "##博": 1157,
      "##濟": 1158,
      "##æ": 1159,
      "##ཟ": 1160,
      "##ə": 1161,
      "##ྩ": 1162,
      "##ེ": 1163,
      "##ད": 1164,
      "##甫": 1165,
      "##冉": 1166,
      "##ʻ": 1167,
      "##单": 1168,
      "##任": 1169,
      "##务": 1170,
      "##Ç": 1171,
      "##ル": 1172,
      "##レ": 1173,
      "##タ": 1174,
      "##吉": 1175,
      "##秋": 1176,
      "##Ê": 1177,
      "##‎": 1178,
      "##厥": 1179,
      "##祥": 1180,
      "##；": 1181,
      "##・": 1182,
      "##∀": 1183,
      "##真": 1184,
      "##一": 1185,
      "##郎": 1186,
      "##﻿": 1187,
      "##À": 1188,
      "##σ": 1189,
      "##ג": 1190,
      "##ཀ": 1191,
      "##─": 1192,
      "##ས": 1193,
      "##亞": 1194,
      "##輝": 1195,
      "##£": 1196,
      "##ྟ": 1197,
      "##­": 1198,
      "##ک": 1199,
      "##§": 1200,
      "##ị": 1201,
      "##": 1202,
      "##נ": 1203,
      "##ラ": 1204,
      "##ク": 1205,
      "##フ": 1206,
      "##ォ": 1207,
      "##グ": 1208,
      "##î": 1209,
      "##ྡ": 1210,
      "##忠": 1211,
      "##岳": 1212,
      "##🍆": 1213,
      "##🌽": 1214,
      "##🍅": 1215,
      "##​": 1216,
      "##Á": 1217,
      "##Ć": 1218,
      "##馬": 1219,
      "##バ": 1220,
      "##♦": 1221,
      "##о": 1222,
      "##п": 1223,
      "##р": 1224,
      "##с": 1225,
      "##湯": 1226,
      "##愛": 1227,
      "##禮": 1228,
      "##ʲ": 1229,
      "##ɨ": 1230,
      "##ᵝ": 1231,
      "##ː": 1232,
      "##イ": 1233,
      "##チ": 1234,
      "##遠": 1235,
      "##上": 1236,
      "##層": 1237,
      "##崖": 1238,
      "##僑": 1239,
      "##憶": 1240,
      "##錄": 1241,
      "##ے": 1242,
      "##事": 1243,
      "##ï": 1244,
      "##な": 1245,
      "##ぎ": 1246,
      "##ཁ": 1247,
      "##ན": 1248,
      "##ベ": 1249,
      "##サ": 1250,
      "##°": 1251,
      "##ę": 1252,
      "##場": 1253,
      "##版": 1254,
      "##値": 1255,
      "##ی": 1256,
      "##青": 1257,
      "##级": 1258,
      "##警": 1259,
      "##察": 1260,
      "##艺": 1261,
      "##蘅": 1262,
      "##英": 1263,
      "##β": 1264,
      "##季": 1265,
      "##ལ": 1266,
      "##ǐ": 1267,
      "##פ": 1268,
      "##Ä": 1269,
      "##Ÿ": 1270,
      "##泉": 1271,
      "##小": 1272,
      "##品": 1273,
      "##¦": 1274,
      "##˜": 1275,
      "##ổ": 1276,
      "##偏": 1277,
      "##爱": 1278,
      "##你": 1279,
      "##ʔ": 1280,
      "##¢": 1281,
      "##國": 1282,
      "##懷": 1283,
      "##ɑ": 1284,
      "##̀": 1285,
      "##ŋ": 1286,
      "##ム": 1287,
      "##マ": 1288,
      "##ガ": 1289,
      "##ジ": 1290,
      "##◊": 1291,
      "##Ñ": 1292,
      "##慶": 1293,
      "##ᖃ": 1294,
      "##ᓗ": 1295,
      "##ᐃ": 1296,
      "##ᑦ": 1297,
      "##路": 1298,
      "##キ": 1299,
      "##リ": 1300,
      "##コ": 1301,
      "##话": 1302,
      "##ý": 1303,
      "##Ⱦ": 1304,
      "##Ƚ": 1305,
      "##т": 1306,
      "##å": 1307,
      "##€": 1308,
      "##̞": 1309,
      "##ɯ": 1310,
      "##苑": 1311,
      "##弥": 1312,
      "##û": 1313,
      "##ő": 1314,
      "##": 1315,
      "##པ": 1316,
      "##筐": 1317,
      "##日": 1318,
      "##斜": 1319,
      "##祝": 1320,
      "##福": 1321,
      "##在": 1322,
      "##宅": 1323,
      "##ア": 1324,
      "##充": 1325,
      "##ザ": 1326,
      "##ワ": 1327,
      "##故": 1328,
      "##দ": 1329,
      "##ে": 1330,
      "##র": 1331,
      "##г": 1332,
      "##у": 1333,
      "##œ": 1334,
      "##ė": 1335,
      "##↑": 1336,
      "##Í": 1337,
      "##영": 1338,
      "##호": 1339,
      "##仔": 1340,
      "##翅": 1341,
      "##ス": 1342,
      "##ྗ": 1343,
      "##ャ": 1344,
      "##嬢": 1345,
      "##晒": 1346,
      "##ˈ": 1347,
      "##民": 1348,
      "##ླ": 1349,
      "##≡": 1350,
      "##̃": 1351,
      "##": 1352,
      "##خ": 1353,
      "##ž": 1354,
      "##元": 1355,
      "##凱": 1356,
      "##シ": 1357,
      "##ヒ": 1358,
      "##ロ": 1359,
      "##中": 1360,
      "##国": 1361,
      "##大": 1362,
      "##众": 1363,
      "##富": 1364,
      "##裕": 1365,
      "##阶": 1366,
      "##层": 1367,
      "##财": 1368,
      "##皮": 1369,
      "##书": 1370,
      "##¼": 1371,
      "##½": 1372,
      "##›": 1373,
      "##−": 1374,
      "##≥": 1375,
      "##ć": 1376,
      "##Ȼ": 1377,
      "##ぷ": 1378,
      "##·": 1379,
      "##寶": 1380,
      "##果": 1381,
      "##葉": 1382,
      "##北": 1383,
      "##西": 1384,
      "##部": 1385,
      "##×": 1386,
      "##プ": 1387,
      "##τ": 1388,
      "##ò": 1389,
      "##夫": 1390,
      "##紅": 1391,
      "##◯": 1392,
      "##ɔ": 1393,
      "##́": 1394,
      "##θ": 1395,
      "##春": 1396,
      "##風": 1397,
      "##暖": 1398,
      "##ش": 1399,
      "##ṭ": 1400,
      "##ㅋ": 1401,
      "##": 1402,
      "##Ω": 1403,
      "##П": 1404,
      "##翼": 1405,
      "##章": 1406,
      "##ε": 1407,
      "##κ": 1408,
      "##ύ": 1409,
      "##ɥ": 1410,
      "##霆": 1411,
      "##战": 1412,
      "##天": 1413,
      "##工": 1414,
      "##非": 1415,
      "##菉": 1416,
      "##徽": 1417,
      "##六": 1418,
      "##安": 1419,
      "##籃": 1420,
      "##ɛ": 1421,
      "##ニ": 1422,
      "##モ": 1423,
      "##ト": 1424,
      "##→": 1425,
      "##ほ": 1426,
      "##ど": 1427,
      "##り": 1428,
      "##🤔": 1429,
      "##ʿ": 1430,
      "##ྨ": 1431,
      "##¯": 1432,
      "##ু": 1433,
      "##ভ": 1434,
      "##চ": 1435,
      "##্": 1436,
      "##ছ": 1437,
      "##া": 1438,
      "##更": 1439,
      "##近": 1440,
      "##自": 1441,
      "##然": 1442,
      "##断": 1443,
      "##烟": 1444,
      "##气": 1445,
      "##耳": 1446,
      "##‍": 1447,
      "##ɬ": 1448,
      "##ྣ": 1449,
      "##好": 1450,
      "##": 1451,
      "##\u0000\u0000": 1452,
      "##\u0000\u0000\u0000\u0000": 1453,
      "##\u0000\u0000\u0000\u0000\u0000\u0000\u0000\u0000": 1454,
      "##\u0000\u0000\u0000\u0000\u0000\u0000\u0000\u0000\u0000\u0000\u0000\u0000\u0000\u0000\u0000\u0000": 1455,
      "##he": 1456,
      "##er": 1457,
      "the": 1458,
      "##in": 1459,
      "##on": 1460,
      "##at": 1461,
      "##00": 1462,
      "##es": 1463,
      "##en": 1464,
      "##or": 1465,
      "##\u0000\u0000\u0000\u0000\u0000\u0000\u0000\u0000\u0000\u0000\u0000\u0000\u0000\u0000\u0000\u0000\u0000\u0000\u0000\u0000\u0000\u0000\u0000\u0000\u0000\u0000\u0000\u0000\u0000\u0000\u0000\u0000": 1466,
      "##ed": 1467,
      "##an": 1468,
      "##ing": 1469,
      "##ar": 1470,
      "##nd": 1471,
      "##ou": 1472,
      "to": 1473,
      "##it": 1474,
      "##al": 1475,
      "of": 1476,
      "in": 1477,
      "##is": 1478,
      "##re": 1479,
      "and": 1480,
      "##as": 1481,
      "th": 1482,
      "##ic": 1483,
      "##om": 1484,
      "##ion": 1485,
      "##le": 1486,
      "##ent": 1487,
      "##\u0000\u0000\u0000\u0000\u0000\u0000\u0000\u0000\u0000\u0000\u0000\u0000\u0000\u0000\u0000\u0000\u0000\u0000\u0000\u0000\u0000\u0000\u0000\u0000\u0000\u0000\u0000\u0000\u0000\u0000\u0000\u0000\u0000\u0000\u0000\u0000\u0000\u0000\u0000\u0000\u0000\u0000\u0000\u0000\u0000\u0000\u0000\u0000\u0000\u0000\u0000\u0000\u0000\u0000\u0000\u0000\u0000\u0000\u0000\u0000\u0000\u0000\u0000\u0000": 1488,
      "##0000": 1489,
      "##ll": 1490,
      "##st": 1491,
      "##ly": 1492,
      "be": 1493,
      "##ot": 1494,
      "##ve": 1495,
      "re": 1496,
      "##ac": 1497,
      "##ut": 1498,
      "##id": 1499,
      "##ow": 1500,
      "that": 1501,
      "on": 1502,
      "##et": 1503,
      "##ay": 1504,
      "##ad": 1505,
      "##ur": 1506,
      "is": 1507,
      "##am": 1508,
      "for": 1509,
      "##ig": 1510,
      "##se": 1511,
      "##ro": 1512,
      "##ld": 1513,
      "##ec": 1514,
      "st": 1515,
      "##ver": 1516,
      "##ir": 1517,
      "it": 1518,
      "##im": 1519,
      "The": 1520,
      "##ter": 1521,
      "wh": 1522,
      "##ith": 1523,
      "##ation": 1524,
      "##ce": 1525,
      "as": 1526,
      "##ol": 1527,
      "with": 1528,
      "an": 1529,
      "00000": 1530,
      "##il": 1531,
      "##ill": 1532,
      "##ers": 1533,
      "he": 1534,
      "you": 1535,
      "was": 1536,
      "con": 1537,
      "##ch": 1538,
      "##est": 1539,
      "##ess": 1540,
      "##her": 1541,
      "##em": 1542,
      "##ct": 1543,
      "at": 1544,
      "com": 1545,
      "ha": 1546,
      "we": 1547,
      "##op": 1548,
      "0000000": 1549,
      "##ag": 1550,
      "##ak": 1551,
      "##ate": 1552,
      "##ul": 1553,
      "##ri": 1554,
      "##ts": 1555,
      "are": 1556,
      "##ain": 1557,
      "##od": 1558,
      "pro": 1559,
      "##us": 1560,
      "##igh": 1561,
      "fr": 1562,
      "##um": 1563,
      "##pp": 1564,
      "##el": 1565,
      "##ew": 1566,
      "ex": 1567,
      "##and": 1568,
      "##ab": 1569,
      "or": 1570,
      "not": 1571,
      "##ear": 1572,
      "##\u0000\u0000\u0000\u0000\u0000\u0000\u0000\u0000\u0000\u0000\u0000\u0000\u0000\u0000\u0000\u0000\u0000\u0000\u0000\u0000\u0000\u0000\u0000\u0000\u0000\u0000\u0000\u0000\u0000\u0000\u0000\u0000\u0000\u0000\u0000\u0000\u0000\u0000\u0000\u0000\u0000\u0000\u0000\u0000\u0000\u0000\u0000\u0000\u0000\u0000\u0000\u0000\u0000\u0000\u0000\u0000\u0000\u0000\u0000\u0000\u0000\u0000\u0000\u0000\u0000\u0000\u0000\u0000\u0000\u0000\u0000\u0000\u0000\u0000\u0000\u0000\u0000\u0000\u0000\u0000\u0000\u0000\u0000\u0000\u0000\u0000\u0000\u0000\u0000\u0000\u0000\u0000\u0000\u0000\u0000\u0000\u0000\u0000\u0000\u0000\u0000\u0000\u0000\u0000\u0000\u0000\u0000\u0000\u0000\u0000\u0000\u0000\u0000\u0000\u0000\u0000\u0000\u0000\u0000\u0000\u0000\u0000\u0000\u0000\u0000\u0000\u0000\u0000": 1573,
      "##un": 1574,
      "##th": 1575,
      "##ore": 1576,
      "have": 1577,
      "##ity": 1578,
      "by": 1579,
      "##ist": 1580,
      "##os": 1581,
      "##ould": 1582,
      "##oc": 1583,
      "de": 1584,
      "from": 1585,
      "##if": 1586,
      "al": 1587,
      "##ive": 1588,
      "su": 1589,
      "sh": 1590,
      "##ment": 1591,
      "se": 1592,
      "ch": 1593,
      "this": 1594,
      "##\u0000\u0000\u0000": 1595,
      "##art": 1596,
      "pr": 1597,
      "##ust": 1598,
      "##ies": 1599,
      "##ort": 1600,
      "ab": 1601,
      "sa": 1602,
      "##out": 1603,
      "##ack": 1604,
      "##ant": 1605,
      "pl": 1606,
      "has": 1607,
      "go": 1608,
      "##all": 1609,
      "##ap": 1610,
      "##ally": 1611,
      "##ight": 1612,
      "his": 1613,
      "##iv": 1614,
      "tr": 1615,
      "##ost": 1616,
      "##gh": 1617,
      "##our": 1618,
      "##ect": 1619,
      "##ere": 1620,
      "##ke": 1621,
      "##ard": 1622,
      "wor": 1623,
      "sp": 1624,
      "##ome": 1625,
      "do": 1626,
      "##ast": 1627,
      "they": 1628,
      "##end": 1629,
      "le": 1630,
      "but": 1631,
      "##ud": 1632,
      "will": 1633,
      "all": 1634,
      "##ok": 1635,
      "whe": 1636,
      "##rou": 1637,
      "said": 1638,
      "In": 1639,
      "can": 1640,
      "Th": 1641,
      "en": 1642,
      "##ich": 1643,
      "##ge": 1644,
      "who": 1645,
      "##ff": 1646,
      "their": 1647,
      "out": 1648,
      "##ame": 1649,
      "##ong": 1650,
      "##ial": 1651,
      "##ans": 1652,
      "up": 1653,
      "##ep": 1654,
      "##\u0000\u0000\u0000\u0000\u0000\u0000\u0000": 1655,
      "ne": 1656,
      "##ie": 1657,
      "un": 1658,
      "##ther": 1659,
      "##ice": 1660,
      "##mp": 1661,
      "##ure": 1662,
      "\u0000\u0000\u0000\u0000\u0000\u0000\u0000\u0000\u0000\u0000\u0000\u0000\u0000\u0000\u0000\u0000\u0000\u0000\u0000\u0000\u0000\u0000\u0000\u0000\u0000\u0000\u0000\u0000\u0000\u0000\u0000\u0000\u0000\u0000\u0000\u0000\u0000\u0000\u0000\u0000\u0000\u0000\u0000\u0000\u0000\u0000\u0000\u0000\u0000\u0000\u0000\u0000\u0000\u0000\u0000\u0000\u0000\u0000\u0000\u0000\u0000\u0000\u0000\u0000\u0000": 1663,
      "##ue": 1664,
      "int": 1665,
      "about": 1666,
      "##ions": 1667,
      "##01": 1668,
      "more": 1669,
      "ad": 1670,
      "##one": 1671,
      "##ous": 1672,
      "##oun": 1673,
      "##age": 1674,
      "##ike": 1675,
      "one": 1676,
      "##ine": 1677,
      "me": 1678,
      "so": 1679,
      "##ber": 1680,
      "comp": 1681,
      "had": 1682,
      "##act": 1683,
      "cl": 1684,
      "##ip": 1685,
      "us": 1686,
      "##cc": 1687,
      "res": 1688,
      "##ub": 1689,
      "##ated": 1690,
      "exp": 1691,
      "were": 1692,
      "##ence": 1693,
      "year": 1694,
      "St": 1695,
      "##ime": 1696,
      "which": 1697,
      "off": 1698,
      "cont": 1699,
      "##og": 1700,
      "##ia": 1701,
      "##ide": 1702,
      "##ake": 1703,
      "would": 1704,
      "It": 1705,
      "##ind": 1706,
      "ag": 1707,
      "##iz": 1708,
      "##xt": 1709,
      "been": 1710,
      "##ra": 1711,
      "##ook": 1712,
      "##ays": 1713,
      "ev": 1714,
      "##au": 1715,
      "man": 1716,
      "##ary": 1717,
      "##pt": 1718,
      "##ord": 1719,
      "##own": 1720,
      "inc": 1721,
      "like": 1722,
      "##so": 1723,
      "##ign": 1724,
      "pe": 1725,
      "##ose": 1726,
      "##qu": 1727,
      "##able": 1728,
      "Ch": 1729,
      "##ace": 1730,
      "##mer": 1731,
      "##ry": 1732,
      "per": 1733,
      "other": 1734,
      "te": 1735,
      "ar": 1736,
      "##ks": 1737,
      "##ass": 1738,
      "over": 1739,
      "##ite": 1740,
      "000": 1741,
      "her": 1742,
      "201": 1743,
      "##ib": 1744,
      "##ople": 1745,
      "new": 1746,
      "##ile": 1747,
      "We": 1748,
      "them": 1749,
      "there": 1750,
      "##ire": 1751,
      "##ical": 1752,
      "dis": 1753,
      "He": 1754,
      "what": 1755,
      "bec": 1756,
      "##ations": 1757,
      "##ance": 1758,
      "rep": 1759,
      "than": 1760,
      "sc": 1761,
      "your": 1762,
      "some": 1763,
      "##ough": 1764,
      "##ond": 1765,
      "##lic": 1766,
      "when": 1767,
      "also": 1768,
      "##are": 1769,
      "##ru": 1770,
      "##ach": 1771,
      "##fter": 1772,
      "part": 1773,
      "people": 1774,
      "app": 1775,
      "##orm": 1776,
      "time": 1777,
      "qu": 1778,
      "kn": 1779,
      "any": 1780,
      "into": 1781,
      "##ase": 1782,
      "##av": 1783,
      "just": 1784,
      "rec": 1785,
      "##ents": 1786,
      "its": 1787,
      "##ail": 1788,
      "our": 1789,
      "fir": 1790,
      "##ian": 1791,
      ".”": 1792,
      "##ens": 1793,
      "##64": 1794,
      "##\u0000\u0000\u0000\u0000\u0000\u0000\u0000\u0000\u0000\u0000\u0000\u0000\u0000\u0000\u0000\u0000\u0000\u0000\u0000\u0000\u0000\u0000\u0000\u0000\u0000\u0000\u0000\u0000\u0000\u0000\u0000\u0000\u0000\u0000\u0000\u0000\u0000\u0000\u0000\u0000\u0000\u0000\u0000\u0000\u0000\u0000\u0000\u0000": 1795,
      "##ound": 1796,
      "##oin": 1797,
      "my": 1798,
      "no": 1799,
      "tw": 1800,
      "##reat": 1801,
      "##ree": 1802,
      "if": 1803,
      "##uc": 1804,
      "she": 1805,
      "get": 1806,
      "##ings": 1807,
      "imp": 1808,
      "work": 1809,
      "act": 1810,
      "##vel": 1811,
      "##ob": 1812,
      "\u0000\u0000\u0000\u0000\u0000\u0000\u0000\u0000\u0000\u0000\u0000\u0000\u0000\u0000\u0000\u0000\u0000\u0000\u0000\u0000\u0000\u0000\u0000\u0000\u0000\u0000\u0000\u0000\u0000\u0000\u0000\u0000\u0000\u0000\u0000\u0000\u0000\u0000\u0000\u0000\u0000\u0000\u0000\u0000\u0000\u0000\u0000\u0000\u0000\u0000\u0000\u0000\u0000\u0000\u0000\u0000\u0000\u0000\u0000\u0000\u0000\u0000\u0000\u0000\u0000\u0000\u0000\u0000\u0000\u0000\u0000\u0000\u0000\u0000\u0000\u0000\u0000\u0000\u0000\u0000\u0000\u0000\u0000\u0000\u0000\u0000\u0000\u0000\u0000\u0000\u0000\u0000\u0000\u0000\u0000\u0000\u0000\u0000\u0000\u0000\u0000\u0000\u0000\u0000\u0000\u0000\u0000\u0000\u0000\u0000\u0000\u0000\u0000\u0000\u0000\u0000\u0000\u0000\u0000\u0000\u0000\u0000\u0000\u0000\u0000\u0000\u0000\u0000\u0000": 1813,
      "##ress": 1814,
      "inter": 1815,
      "##ick": 1816,
      "##ount": 1817,
      "##fer": 1818,
      "##ult": 1819,
      "##ark": 1820,
      "##ang": 1821,
      "##ade": 1822,
      "##ory": 1823,
      "play": 1824,
      "##amp": 1825,
      "19": 1826,
      "##per": 1827,
      ",”": 1828,
      "how": 1829,
      "##ition": 1830,
      "pol": 1831,
      "co": 1832,
      "pre": 1833,
      "##32": 1834,
      "##hing": 1835,
      "##aw": 1836,
      "##ink": 1837,
      "ever": 1838,
      "##hed": 1839,
      "##ors": 1840,
      "##ause": 1841,
      "first": 1842,
      "##itt": 1843,
      "after": 1844,
      "But": 1845,
      "Wh": 1846,
      "##ild": 1847,
      "could": 1848,
      "This": 1849,
      "him": 1850,
      "##ood": 1851,
      "##ates": 1852,
      "##star": 1853,
      "acc": 1854,
      "01": 1855,
      "att": 1856,
      "dec": 1857,
      "cr": 1858,
      "##\u0000\u0000\u0000\u0000\u0000\u0000\u0000\u0000\u0000\u0000\u0000\u0000\u0000\u0000\u0000\u0000\u0000\u0000\u0000\u0000\u0000\u0000\u0000\u0000\u0000\u0000\u0000\u0000\u0000\u0000\u0000\u0000\u0000\u0000\u0000": 1859,
      "##\u0000\u0000\u0000\u0000\u0000\u0000\u0000\u0000\u0000\u0000\u0000\u0000\u0000\u0000\u0000\u0000\u0000\u0000\u0000\u0000\u0000\u0000\u0000\u0000\u0000\u0000\u0000\u0000\u0000\u0000\u0000\u0000\u0000\u0000\u0000\u0000\u0000\u0000\u0000": 1860,
      "##\u0000\u0000\u0000\u0000\u0000\u0000\u0000\u0000\u0000\u0000\u0000\u0000\u0000\u0000\u0000\u0000\u0000\u0000\u0000\u0000\u0000\u0000\u0000\u0000\u0000\u0000\u0000\u0000\u0000\u0000\u0000\u0000\u0000\u0000\u0000\u0000\u0000\u0000\u0000\u0000\u0000\u0000\u0000\u0000\u0000\u0000\u0000\u0000\u0000\u0000\u0000\u0000\u0000\u0000\u0000": 1861,
      "bl": 1862,
      "##064": 1863,
      "##ons": 1864,
      "only": 1865,
      "##enc": 1866,
      "##nder": 1867,
      "txt": 1868,
      "##ove": 1869,
      "##000000": 1870,
      "\u0000\u0000\u0000\u0000\u0000\u0000\u0000\u0000\u0000\u0000\u0000\u0000\u0000\u0000\u0000\u0000\u0000\u0000\u0000\u0000\u0000\u0000\u0000\u0000\u0000\u0000\u0000\u0000\u0000\u0000\u0000\u0000\u0000\u0000\u0000\u0000\u0000\u0000\u0000\u0000\u0000\u0000\u0000\u0000\u0000\u0000\u0000\u0000\u0000\u0000\u0000\u0000\u0000\u0000\u0000\u0000\u0000\u0000\u0000\u0000\u0000\u0000\u0000\u0000\u0000\u0000\u0000\u0000\u0000\u0000\u0000\u0000\u0000\u0000\u0000\u0000\u0000\u0000\u0000\u0000\u0000\u0000\u0000\u0000\u0000\u0000\u0000\u0000\u0000\u0000\u0000\u0000\u0000\u0000\u0000\u0000\u0000\u0000\u0000\u0000\u0000\u0000\u0000\u0000\u0000\u0000\u0000\u0000\u0000\u0000\u0000\u0000\u0000\u0000\u0000\u0000\u0000\u0000\u0000\u0000\u0000\u0000\u0000\u0000\u0000\u0000\u0000\u0000\u0000\u0000\u0000\u0000\u0000\u0000\u0000\u0000\u0000\u0000\u0000\u0000\u0000\u0000\u0000\u0000\u0000\u0000\u0000\u0000\u0000\u0000\u0000\u0000\u0000\u0000\u0000\u0000\u0000\u0000\u0000\u0000\u0000\u0000\u0000\u0000\u0000\u0000\u0000\u0000": 1871,
      "\u0000\u0000\u0000\u0000\u0000\u0000\u0000\u0000\u0000\u0000\u0000\u0000\u0000\u0000\u0000\u0000\u0000\u0000\u0000\u0000\u0000\u0000\u0000\u0000\u0000\u0000\u0000\u0000\u0000\u0000\u0000\u0000\u0000\u0000\u0000\u0000\u0000\u0000\u0000\u0000\u0000\u0000\u0000\u0000\u0000\u0000\u0000\u0000\u0000\u0000\u0000\u0000\u0000\u0000\u0000\u0000\u0000\u0000\u0000\u0000\u0000\u0000\u0000\u0000\u0000\u0000\u0000\u0000\u0000\u0000\u0000\u0000\u0000\u0000\u0000\u0000\u0000\u0000\u0000\u0000\u0000\u0000\u0000\u0000\u0000\u0000\u0000\u0000\u0000\u0000\u0000\u0000\u0000\u0000\u0000\u0000\u0000\u0000\u0000\u0000": 1872,
      "\u0000\u0000\u0000\u0000\u0000\u0000\u0000\u0000\u0000\u0000\u0000\u0000\u0000\u0000\u0000\u0000\u0000\u0000\u0000\u0000\u0000\u0000\u0000\u0000\u0000\u0000\u0000\u0000\u0000\u0000\u0000\u0000\u0000\u0000\u0000\u0000\u0000\u0000\u0000\u0000\u0000\u0000\u0000\u0000\u0000\u0000\u0000\u0000\u0000\u0000\u0000\u0000\u0000\u0000\u0000\u0000": 1873,
      "##0644": 1874,
      "ustar": 1875,
      "00000000000": 1876,
      "0000644": 1877,
      "comm": 1878,
      "fe": 1879,
      "##lect": 1880,
      "##ious": 1881,
      "back": 1882,
      "##ning": 1883,
      "two": 1884,
      "And": 1885,
      "##ict": 1886,
      "ser": 1887,
      "gr": 1888,
      "##ov": 1889,
      "br": 1890,
      "##oll": 1891,
      "##form": 1892,
      "##ery": 1893,
      "bet": 1894,
      "##we": 1895,
      "##ne": 1896,
      "##ish": 1897,
      "##ater": 1898,
      "most": 1899,
      "did": 1900,
      "##oy": 1901,
      "am": 1902,
      ".\"": 1903,
      "##rough": 1904,
      "##ft": 1905,
      "##man": 1906,
      "again": 1907,
      "under": 1908,
      "As": 1909,
      "##ual": 1910,
      "sec": 1911,
      "now": 1912,
      "des": 1913,
      "cons": 1914,
      "##anc": 1915,
      "inv": 1916,
      "wr": 1917,
      "need": 1918,
      "##round": 1919,
      "##ock": 1920,
      "##sel": 1921,
      "know": 1922,
      "see": 1923,
      "even": 1924,
      "add": 1925,
      "##ident": 1926,
      "##urn": 1927,
      "because": 1928,
      "##wn": 1929,
      "032": 1930,
      "ind": 1931,
      "##ublic": 1932,
      "##other": 1933,
      "##ull": 1934,
      "years": 1935,
      "Un": 1936,
      "##iver": 1937,
      "every": 1938,
      "##day": 1939,
      "##fore": 1940,
      "Tr": 1941,
      "##les": 1942,
      "##uch": 1943,
      "##iss": 1944,
      "##lud": 1945,
      "these": 1946,
      "make": 1947,
      "where": 1948,
      "way": 1949,
      "look": 1950,
      "##ied": 1951,
      "call": 1952,
      "##ower": 1953,
      "##res": 1954,
      "supp": 1955,
      "##vern": 1956,
      "An": 1957,
      "rel": 1958,
      "##ump": 1959,
      "being": 1960,
      "want": 1961,
      "sy": 1962,
      "##ily": 1963,
      "##oss": 1964,
      "##ason": 1965,
      "ve": 1966,
      "##ise": 1967,
      "ass": 1968,
      "dif": 1969,
      "015": 1970,
      "rem": 1971,
      "##hen": 1972,
      "def": 1973,
      "##aking": 1974,
      "don": 1975,
      "##ath": 1976,
      "##meric": 1977,
      "down": 1978,
      "##ating": 1979,
      "200": 1980,
      "then": 1981,
      "##ting": 1982,
      "##ities": 1983,
      "Americ": 1984,
      "bu": 1985,
      "##\u0000\u0000\u0000\u0000\u0000\u0000\u0000\u0000\u0000\u0000\u0000\u0000\u0000\u0000\u0000\u0000\u0000\u0000\u0000\u0000\u0000\u0000\u0000\u0000\u0000\u0000\u0000\u0000\u0000\u0000\u0000\u0000\u0000\u0000\u0000\u0000\u0000\u0000\u0000\u0000\u0000\u0000\u0000\u0000\u0000\u0000\u0000\u0000\u0000\u0000\u0000\u0000\u0000\u0000\u0000\u0000\u0000\u0000\u0000\u0000\u0000\u0000\u0000\u0000\u0000\u0000\u0000\u0000\u0000\u0000\u0000\u0000\u0000\u0000\u0000\u0000\u0000\u0000\u0000\u0000\u0000\u0000\u0000\u0000\u0000\u0000\u0000\u0000\u0000\u0000\u0000\u0000\u0000\u0000\u0000\u0000\u0000\u0000\u0000\u0000\u0000\u0000\u0000\u0000\u0000\u0000\u0000\u0000\u0000\u0000\u0000\u0000\u0000\u0000\u0000\u0000\u0000\u0000\u0000\u0000\u0000\u0000\u0000\u0000\u0000\u0000\u0000\u0000\u0000\u0000\u0000\u0000\u0000\u0000\u0000\u0000\u0000\u0000\u0000\u0000\u0000\u0000\u0000\u0000\u0000\u0000\u0000\u0000\u0000\u0000\u0000\u0000\u0000\u0000\u0000\u0000\u0000\u0000\u0000\u0000\u0000\u0000\u0000\u0000\u0000\u0000\u0000\u0000\u0000\u0000\u0000\u0000\u0000\u0000\u0000\u0000\u0000\u0000\u0000\u0000\u0000\u0000\u0000\u0000\u0000\u0000\u0000\u0000\u0000\u0000\u0000\u0000\u0000\u0000\u0000\u0000\u0000\u0000\u0000\u0000\u0000\u0000\u0000\u0000\u0000\u0000\u0000\u0000\u0000\u0000\u0000\u0000\u0000\u0000\u0000\u0000\u0000\u0000\u0000\u0000\u0000\u0000\u0000\u0000\u0000\u0000\u0000\u0000\u0000\u0000\u0000\u0000\u0000\u0000\u0000\u0000\u0000\u0000\u0000\u0000\u0000\u0000\u0000\u0000\u0000\u0000\u0000\u0000\u0000\u0000\u0000\u0000\u0000\u0000\u0000\u0000": 1986,
      "##ational": 1987,
      "through": 1988,
      "##ased": 1989,
      "fl": 1990,
      "end": 1991,
      "##iew": 1992,
      ",\"": 1993,
      "##old": 1994,
      "##hn": 1995,
      "pres": 1996,
      "may": 1997,
      "many": 1998,
      "You": 1999,
      "much": 2000,
      "##ty": 2001,
      "##ell": 2002,
      "Fr": 2003,
      "##du": 2004,
      "includ": 2005,
      "think": 2006,
      "If": 2007,
      "##rib": 2008,
      "those": 2009,
      "New": 2010,
      "well": 2011,
      "say": 2012,
      "use": 2013,
      "last": 2014,
      "##--": 2015,
      "reg": 2016,
      "mon": 2017,
      "id": 2018,
      "bel": 2019,
      "does": 2020,
      "long": 2021,
      "show": 2022,
      "min": 2023,
      "##ef": 2024,
      "very": 2025,
      "ph": 2026,
      "##ction": 2027,
      "ac": 2028,
      "own": 2029,
      "##uring": 2030,
      "before": 2031,
      "made": 2032,
      "should": 2033,
      "im": 2034,
      "##ters": 2035,
      "##oth": 2036,
      "fin": 2037,
      "##ven": 2038,
      "##ved": 2039,
      "They": 2040,
      "sub": 2041,
      "govern": 2042,
      "##erson": 2043,
      "##als": 2044,
      "##und": 2045,
      "##ited": 2046,
      "Al": 2047,
      "10": 2048,
      "##ative": 2049,
      "##omet": 2050,
      "world": 2051,
      "team": 2052,
      "eff": 2053,
      "##ife": 2054,
      "##ont": 2055,
      "##arg": 2056,
      "game": 2057,
      "##ss": 2058,
      "##ince": 2059,
      "str": 2060,
      "##stem": 2061,
      "going": 2062,
      "Re": 2063,
      "Br": 2064,
      "For": 2065,
      "##its": 2066,
      "##ible": 2067,
      "##ward": 2068,
      "##ble": 2069,
      "##olog": 2070,
      "sm": 2071,
      "##ific": 2072,
      "good": 2073,
      "set": 2074,
      "##urr": 2075,
      "##tain": 2076,
      "##ics": 2077,
      "such": 2078,
      "ob": 2079,
      ").": 2080,
      "##gr": 2081,
      "##ton": 2082,
      "##ually": 2083,
      "car": 2084,
      "##ange": 2085,
      "##ments": 2086,
      "ro": 2087,
      "##ener": 2088,
      "ke": 2089,
      "##ject": 2090,
      "stud": 2091,
      "poin": 2092,
      "ter": 2093,
      "##ank": 2094,
      "right": 2095,
      "wee": 2096,
      "##ular": 2097,
      "##illion": 2098,
      "##ement": 2099,
      "##ues": 2100,
      "while": 2101,
      "##ful": 2102,
      "##roup": 2103,
      "ear": 2104,
      "count": 2105,
      "##ility": 2106,
      "##ists": 2107,
      "differ": 2108,
      "##ism": 2109,
      "hel": 2110,
      "##ix": 2111,
      "resp": 2112,
      "start": 2113,
      "against": 2114,
      "##ee": 2115,
      "lead": 2116,
      "##ork": 2117,
      "##ner": 2118,
      "inst": 2119,
      "##gan": 2120,
      "sign": 2121,
      "##ween": 2122,
      "ed": 2123,
      "##tern": 2124,
      "##ote": 2125,
      "##ures": 2126,
      "Ar": 2127,
      "though": 2128,
      "There": 2129,
      "##ently": 2130,
      "Sp": 2131,
      "system": 2132,
      "gu": 2133,
      "##te": 2134,
      "##alk": 2135,
      "sim": 2136,
      "##hes": 2137,
      "help": 2138,
      "##ier": 2139,
      "real": 2140,
      "take": 2141,
      "##ving": 2142,
      "##ever": 2143,
      "sur": 2144,
      "disc": 2145,
      "offic": 2146,
      "between": 2147,
      "##uss": 2148,
      "op": 2149,
      "##imes": 2150,
      "##ollow": 2151,
      "says": 2152,
      "found": 2153,
      "##ather": 2154,
      "run": 2155,
      "Is": 2156,
      "ins": 2157,
      "##self": 2158,
      "##ool": 2159,
      "Sh": 2160,
      "col": 2161,
      "same": 2162,
      "government": 2163,
      "law": 2164,
      "##gg": 2165,
      "##led": 2166,
      "##ys": 2167,
      "prov": 2168,
      "three": 2169,
      "Com": 2170,
      "##ah": 2171,
      "That": 2172,
      "##atch": 2173,
      "##ms": 2174,
      "somet": 2175,
      "trans": 2176,
      "##yp": 2177,
      "Cl": 2178,
      "##akes": 2179,
      "par": 2180,
      "still": 2181,
      "##ames": 2182,
      "fam": 2183,
      "##any": 2184,
      "##ax": 2185,
      "##ants": 2186,
      "##ves": 2187,
      "##ution": 2188,
      "##io": 2189,
      "On": 2190,
      "med": 2191,
      "happ": 2192,
      "##ives": 2193,
      "##ember": 2194,
      "aut": 2195,
      "##air": 2196,
      "high": 2197,
      "state": 2198,
      "exper": 2199,
      "war": 2200,
      "Le": 2201,
      "around": 2202,
      "dep": 2203,
      "),": 2204,
      "##ets": 2205,
      "group": 2206,
      "##oot": 2207,
      "##der": 2208,
      "##ices": 2209,
      "##ope": 2210,
      "day": 2211,
      "##ady": 2212,
      "##ience": 2213,
      "Trump": 2214,
      "hand": 2215,
      "num": 2216,
      "ret": 2217,
      "##velop": 2218,
      "spec": 2219,
      "here": 2220,
      "##ave": 2221,
      "sl": 2222,
      "##ying": 2223,
      "##az": 2224,
      "cour": 2225,
      "##ense": 2226,
      "##way": 2227,
      "person": 2228,
      "report": 2229,
      "Mar": 2230,
      "##up": 2231,
      "ext": 2232,
      "great": 2233,
      "##con": 2234,
      "##ouse": 2235,
      "soc": 2236,
      "public": 2237,
      "used": 2238,
      "cap": 2239,
      "mod": 2240,
      "##hip": 2241,
      "So": 2242,
      "find": 2243,
      "em": 2244,
      "At": 2245,
      "##cept": 2246,
      "polit": 2247,
      "both": 2248,
      "##ng": 2249,
      "old": 2250,
      "##iet": 2251,
      "month": 2252,
      "really": 2253,
      "conf": 2254,
      "##ording": 2255,
      "commun": 2256,
      "produ": 2257,
      "child": 2258,
      "##ale": 2259,
      "told": 2260,
      "another": 2261,
      "##ted": 2262,
      "develop": 2263,
      "follow": 2264,
      "##ern": 2265,
      "belie": 2266,
      "big": 2267,
      "few": 2268,
      "conc": 2269,
      "When": 2270,
      "##orts": 2271,
      "##att": 2272,
      "##land": 2273,
      "det": 2274,
      "leg": 2275,
      "power": 2276,
      "since": 2277,
      "invest": 2278,
      "##lear": 2279,
      "char": 2280,
      "##31": 2281,
      "##alth": 2282,
      "How": 2283,
      "##ins": 2284,
      "prot": 2285,
      "during": 2286,
      "cre": 2287,
      "elect": 2288,
      "cor": 2289,
      "Bl": 2290,
      "wom": 2291,
      "##pr": 2292,
      "too": 2293,
      "##get": 2294,
      "##ines": 2295,
      "##..": 2296,
      "##50": 2297,
      "##ash": 2298,
      "support": 2299,
      "mark": 2300,
      "##ects": 2301,
      "head": 2302,
      "life": 2303,
      "##ically": 2304,
      "She": 2305,
      "##ency": 2306,
      "week": 2307,
      "##ision": 2308,
      "gener": 2309,
      "##med": 2310,
      "##ced": 2311,
      "##ars": 2312,
      "20": 2313,
      "iss": 2314,
      "dire": 2315,
      "cent": 2316,
      "12": 2317,
      "come": 2318,
      "##ute": 2319,
      "things": 2320,
      "##ider": 2321,
      "fact": 2322,
      "##ient": 2323,
      "##pl": 2324,
      "expl": 2325,
      "put": 2326,
      "dem": 2327,
      "something": 2328,
      "##red": 2329,
      "different": 2330,
      "Ad": 2331,
      "##ized": 2332,
      "camp": 2333,
      "met": 2334,
      "fil": 2335,
      "rele": 2336,
      "ll": 2337,
      "##ross": 2338,
      "##ivers": 2339,
      "Jo": 2340,
      "##bers": 2341,
      "##ially": 2342,
      "lot": 2343,
      "ask": 2344,
      "adv": 2345,
      "##ages": 2346,
      "##aj": 2347,
      "##thing": 2348,
      "quest": 2349,
      "contro": 2350,
      "Rep": 2351,
      "far": 2352,
      "##ention": 2353,
      "plan": 2354,
      "##ights": 2355,
      "pri": 2356,
      "##ata": 2357,
      "each": 2358,
      "Ph": 2359,
      "##min": 2360,
      "##ren": 2361,
      "US": 2362,
      "next": 2363,
      "contin": 2364,
      "##ret": 2365,
      "second": 2366,
      "spe": 2367,
      "requ": 2368,
      "opp": 2369,
      "##ik": 2370,
      "##cess": 2371,
      "dist": 2372,
      "got": 2373,
      "##47": 2374,
      "che": 2375,
      "best": 2376,
      "ent": 2377,
      "loc": 2378,
      "What": 2379,
      "poss": 2380,
      "##over": 2381,
      "never": 2382,
      "##chool": 2383,
      "post": 2384,
      "##ling": 2385,
      "read": 2386,
      "##uck": 2387,
      "let": 2388,
      "##ield": 2389,
      "bo": 2390,
      "might": 2391,
      "##ea": 2392,
      "pass": 2393,
      "open": 2394,
      "feel": 2395,
      "Chr": 2396,
      "##ital": 2397,
      "##ways": 2398,
      "##osed": 2399,
      "##ittle": 2400,
      "##sp": 2401,
      "##cent": 2402,
      "##ness": 2403,
      "##view": 2404,
      "##ize": 2405,
      "art": 2406,
      "##echn": 2407,
      "partic": 2408,
      "##ode": 2409,
      "incre": 2410,
      "allow": 2411,
      "home": 2412,
      "turn": 2413,
      "place": 2414,
      "##iness": 2415,
      "##ph": 2416,
      "inform": 2417,
      ".[": 2418,
      "gl": 2419,
      "inf": 2420,
      "including": 2421,
      "four": 2422,
      "##aim": 2423,
      "##oney": 2424,
      "win": 2425,
      "##less": 2426,
      "##orn": 2427,
      "##ody": 2428,
      "##rat": 2429,
      "called": 2430,
      "million": 2431,
      "curr": 2432,
      "30": 2433,
      "##iting": 2434,
      "ref": 2435,
      "##ric": 2436,
      "Be": 2437,
      "without": 2438,
      "comple": 2439,
      "import": 2440,
      "##ature": 2441,
      "stand": 2442,
      "dr": 2443,
      "##conom": 2444,
      "American": 2445,
      "##gy": 2446,
      "hard": 2447,
      "mov": 2448,
      "Pro": 2449,
      "seem": 2450,
      "level": 2451,
      "bre": 2452,
      "##ten": 2453,
      "val": 2454,
      "season": 2455,
      "free": 2456,
      "mem": 2457,
      "##ama": 2458,
      "All": 2459,
      "top": 2460,
      "beh": 2461,
      "##ex": 2462,
      "ann": 2463,
      "--": 2464,
      "11": 2465,
      "case": 2466,
      "##ished": 2467,
      "##ected": 2468,
      "tri": 2469,
      "##ately": 2470,
      "18": 2471,
      "rest": 2472,
      "left": 2473,
      "stat": 2474,
      "attack": 2475,
      "direct": 2476,
      "little": 2477,
      "Sc": 2478,
      "hum": 2479,
      "##eng": 2480,
      "bus": 2481,
      "15": 2482,
      "always": 2483,
      "##line": 2484,
      "av": 2485,
      "##gram": 2486,
      "proble": 2487,
      "##eb": 2488,
      "TH": 2489,
      "keep": 2490,
      "##ces": 2491,
      "##til": 2492,
      "care": 2493,
      "test": 2494,
      "##earch": 2495,
      "red": 2496,
      "##iven": 2497,
      "point": 2498,
      "##ER": 2499,
      "interest": 2500,
      "move": 2501,
      "pop": 2502,
      "##ug": 2503,
      "pay": 2504,
      "##ple": 2505,
      "mat": 2506,
      "##ised": 2507,
      "Pl": 2508,
      "##erv": 2509,
      "el": 2510,
      "##ided": 2511,
      "number": 2512,
      "build": 2513,
      "mil": 2514,
      "##ract": 2515,
      "country": 2516,
      "class": 2517,
      "appear": 2518,
      "##ably": 2519,
      "main": 2520,
      "##ned": 2521,
      "##ender": 2522,
      "##riend": 2523,
      "rece": 2524,
      "dri": 2525,
      "didn": 2526,
      "percent": 2527,
      "better": 2528,
      "less": 2529,
      "##ina": 2530,
      "econom": 2531,
      "##rap": 2532,
      "near": 2533,
      "book": 2534,
      "appro": 2535,
      "serv": 2536,
      "fun": 2537,
      "sk": 2538,
      "##ology": 2539,
      "##iving": 2540,
      "techn": 2541,
      "##vers": 2542,
      "##ck": 2543,
      "##ral": 2544,
      "##ared": 2545,
      "money": 2546,
      "##app": 2547,
      "Go": 2548,
      "##hor": 2549,
      "emp": 2550,
      "##ration": 2551,
      "One": 2552,
      "Mr": 2553,
      "prof": 2554,
      "prev": 2555,
      "full": 2556,
      "later": 2557,
      "##leg": 2558,
      "claim": 2559,
      "##ajor": 2560,
      "using": 2561,
      "talk": 2562,
      "process": 2563,
      "##son": 2564,
      "police": 2565,
      "city": 2566,
      "data": 2567,
      "chang": 2568,
      "##----": 2569,
      "Tw": 2570,
      "program": 2571,
      "##urity": 2572,
      "story": 2573,
      "Ob": 2574,
      "typ": 2575,
      "form": 2576,
      "small": 2577,
      "##urs": 2578,
      "##ready": 2579,
      "why": 2580,
      "##ead": 2581,
      "must": 2582,
      "list": 2583,
      "based": 2584,
      "##af": 2585,
      "company": 2586,
      "Pr": 2587,
      "Ind": 2588,
      "school": 2589,
      "##ister": 2590,
      "const": 2591,
      "##arge": 2592,
      "##inal": 2593,
      "##ional": 2594,
      "##AT": 2595,
      "president": 2596,
      "##stand": 2597,
      "information": 2598,
      "##ains": 2599,
      "already": 2600,
      "eas": 2601,
      "est": 2602,
      "family": 2603,
      "prom": 2604,
      "order": 2605,
      "bit": 2606,
      "men": 2607,
      "##46": 2608,
      "record": 2609,
      "##duc": 2610,
      "Pres": 2611,
      "To": 2612,
      "##ired": 2613,
      "hist": 2614,
      "kill": 2615,
      "clear": 2616,
      "came": 2617,
      "Comm": 2618,
      "##ott": 2619,
      "##rem": 2620,
      "##reen": 2621,
      "##acy": 2622,
      "doesn": 2623,
      "##used": 2624,
      "##02": 2625,
      "...": 2626,
      "##ech": 2627,
      "pos": 2628,
      "##ley": 2629,
      "##aign": 2630,
      "thing": 2631,
      "##els": 2632,
      "give": 2633,
      "oper": 2634,
      "##ians": 2635,
      "important": 2636,
      "vide": 2637,
      "job": 2638,
      "days": 2639,
      "change": 2640,
      "##be": 2641,
      "organ": 2642,
      "happen": 2643,
      "##atur": 2644,
      "tell": 2645,
      "past": 2646,
      "official": 2647,
      "##sc": 2648,
      "children": 2649,
      "Mc": 2650,
      "making": 2651,
      "grow": 2652,
      "political": 2653,
      "cer": 2654,
      "##ird": 2655,
      "##orth": 2656,
      "Or": 2657,
      "away": 2658,
      "##ived": 2659,
      "news": 2660,
      "water": 2661,
      "cost": 2662,
      "##ney": 2663,
      "##ron": 2664,
      "##ruct": 2665,
      "United": 2666,
      "women": 2667,
      "vis": 2668,
      "##ury": 2669,
      "Can": 2670,
      "With": 2671,
      "kind": 2672,
      "health": 2673,
      "design": 2674,
      "##row": 2675,
      "fac": 2676,
      "line": 2677,
      "sol": 2678,
      "##here": 2679,
      "16": 2680,
      "Im": 2681,
      "##ards": 2682,
      "##ences": 2683,
      "actually": 2684,
      "bas": 2685,
      "polic": 2686,
      "17": 2687,
      "Con": 2688,
      "consider": 2689,
      "del": 2690,
      "charac": 2691,
      "until": 2692,
      "No": 2693,
      "major": 2694,
      "##aff": 2695,
      "view": 2696,
      "##ending": 2697,
      "social": 2698,
      "able": 2699,
      "##ission": 2700,
      "friend": 2701,
      "sever": 2702,
      "product": 2703,
      "##iam": 2704,
      "campaign": 2705,
      "##iversity": 2706,
      "##augh": 2707,
      "market": 2708,
      "took": 2709,
      "po": 2710,
      "least": 2711,
      "aff": 2712,
      "edit": 2713,
      "Dem": 2714,
      "##ained": 2715,
      "business": 2716,
      "intern": 2717,
      "##ified": 2718,
      "##loy": 2719,
      "##ator": 2720,
      "working": 2721,
      "##enn": 2722,
      "young": 2723,
      "examp": 2724,
      "##ger": 2725,
      "##alf": 2726,
      "media": 2727,
      "##icle": 2728,
      "##ched": 2729,
      "##ept": 2730,
      "John": 2731,
      "large": 2732,
      "tax": 2733,
      "##ality": 2734,
      "prop": 2735,
      "pat": 2736,
      "deal": 2737,
      "return": 2738,
      "enough": 2739,
      "President": 2740,
      "##ising": 2741,
      "Russ": 2742,
      "##ocrat": 2743,
      "##ued": 2744,
      "##oad": 2745,
      "Republic": 2746,
      "##ccess": 2747,
      "food": 2748,
      "##aps": 2749,
      "lear": 2750,
      "##ides": 2751,
      "former": 2752,
      "##aining": 2753,
      "##ush": 2754,
      "##eral": 2755,
      ".\u0000\u0000\u0000\u0000\u0000\u0000\u0000\u0000\u0000\u0000\u0000\u0000\u0000\u0000\u0000\u0000\u0000\u0000\u0000\u0000\u0000\u0000\u0000\u0000\u0000\u0000\u0000\u0000\u0000\u0000\u0000\u0000\u0000\u0000\u0000\u0000\u0000\u0000\u0000\u0000\u0000\u0000\u0000\u0000\u0000\u0000\u0000\u0000\u0000\u0000\u0000\u0000\u0000\u0000\u0000\u0000\u0000\u0000\u0000\u0000\u0000\u0000\u0000\u0000\u0000\u0000\u0000\u0000\u0000\u0000\u0000\u0000\u0000\u0000\u0000\u0000\u0000\u0000\u0000\u0000\u0000\u0000\u0000\u0000\u0000\u0000\u0000\u0000\u0000\u0000\u0000\u0000\u0000\u0000\u0000\u0000\u0000\u0000\u0000\u0000\u0000\u0000\u0000\u0000\u0000\u0000\u0000\u0000\u0000\u0000\u0000\u0000\u0000\u0000\u0000\u0000\u0000\u0000\u0000\u0000\u0000\u0000\u0000\u0000\u0000\u0000\u0000\u0000\u0000\u0000\u0000\u0000\u0000\u0000\u0000\u0000\u0000\u0000\u0000\u0000\u0000\u0000\u0000\u0000\u0000\u0000\u0000\u0000\u0000\u0000\u0000\u0000\u0000\u0000\u0000\u0000\u0000\u0000\u0000\u0000\u0000\u0000\u0000\u0000\u0000\u0000\u0000\u0000\u0000\u0000\u0000\u0000\u0000\u0000\u0000\u0000\u0000\u0000\u0000\u0000\u0000\u0000\u0000\u0000\u0000\u0000\u0000\u0000\u0000\u0000\u0000\u0000\u0000\u0000\u0000\u0000\u0000\u0000\u0000\u0000\u0000\u0000\u0000\u0000\u0000\u0000\u0000\u0000\u0000\u0000\u0000\u0000\u0000\u0000\u0000\u0000\u0000\u0000\u0000\u0000\u0000\u0000\u0000\u0000\u0000\u0000\u0000\u0000\u0000\u0000\u0000\u0000\u0000\u0000\u0000\u0000\u0000\u0000\u0000\u0000\u0000\u0000\u0000\u0000\u0000\u0000\u0000\u0000\u0000\u0000\u0000\u0000\u0000\u0000\u0000\u0000": 2756,
      "May": 2757,
      "##side": 2758,
      "14": 2759,
      "mar": 2760,
      "##ither": 2761,
      "##ases": 2762,
      "Co": 2763,
      "amp": 2764,
      "##iber": 2765,
      "De": 2766,
      "##37": 2767,
      "Eur": 2768,
      "##uture": 2769,
      "##ON": 2770,
      "games": 2771,
      "sit": 2772,
      "become": 2773,
      "##11": 2774,
      "##aring": 2775,
      "##OR": 2776,
      "##ream": 2777,
      "##ption": 2778,
      "author": 2779,
      "community": 2780,
      "After": 2781,
      "press": 2782,
      "mean": 2783,
      "night": 2784,
      "dev": 2785,
      "##ection": 2786,
      "according": 2787,
      "net": 2788,
      "often": 2789,
      "control": 2790,
      "name": 2791,
      "Christ": 2792,
      "##outh": 2793,
      "times": 2794,
      "five": 2795,
      "0000001": 2796,
      "deb": 2797,
      "event": 2798,
      "understand": 2799,
      "##57": 2800,
      "Sy": 2801,
      "##aken": 2802,
      "doing": 2803,
      "##56": 2804,
      "love": 2805,
      "##ene": 2806,
      "Col": 2807,
      "##ison": 2808,
      "##ium": 2809,
      "sex": 2810,
      "199": 2811,
      "ident": 2812,
      "Don": 2813,
      "within": 2814,
      "word": 2815,
      "##artment": 2816,
      "hold": 2817,
      "meet": 2818,
      "##bs": 2819,
      "went": 2820,
      "activ": 2821,
      "fund": 2822,
      "##IN": 2823,
      "##ior": 2824,
      "##oto": 2825,
      "vi": 2826,
      "##ured": 2827,
      "##ann": 2828,
      "##ler": 2829,
      "players": 2830,
      "equ": 2831,
      "##une": 2832,
      "air": 2833,
      "##ered": 2834,
      "Car": 2835,
      "Min": 2836,
      "##gin": 2837,
      "stop": 2838,
      "##urch": 2839,
      "13": 2840,
      "occ": 2841,
      "##ware": 2842,
      "desc": 2843,
      "known": 2844,
      "##idence": 2845,
      "##ential": 2846,
      "human": 2847,
      "##ivid": 2848,
      "##ony": 2849,
      "##20": 2850,
      "effect": 2851,
      "State": 2852,
      "given": 2853,
      "pot": 2854,
      "##ization": 2855,
      "Ger": 2856,
      "vot": 2857,
      "##uff": 2858,
      "perform": 2859,
      "fail": 2860,
      "eng": 2861,
      "bro": 2862,
      "##imate": 2863,
      "certain": 2864,
      "##ances": 2865,
      "thought": 2866,
      "##17": 2867,
      "question": 2868,
      "##EN": 2869,
      "whether": 2870,
      "Pol": 2871,
      "experience": 2872,
      "won": 2873,
      "##ensive": 2874,
      "##rop": 2875,
      "York": 2876,
      "early": 2877,
      "hour": 2878,
      "var": 2879,
      "sure": 2880,
      "##rew": 2881,
      "once": 2882,
      "sw": 2883,
      "##36": 2884,
      "fight": 2885,
      "##ald": 2886,
      "##ries": 2887,
      "across": 2888,
      "##34": 2889,
      "##fe": 2890,
      "##ering": 2891,
      "investig": 2892,
      "##itter": 2893,
      "side": 2894,
      "##ball": 2895,
      "crit": 2896,
      "Am": 2897,
      "months": 2898,
      "along": 2899,
      "My": 2900,
      "##ober": 2901,
      "##idd": 2902,
      "orig": 2903,
      "##rael": 2904,
      "Obama": 2905,
      "##iously": 2906,
      "reason": 2907,
      "##ories": 2908,
      "mom": 2909,
      "today": 2910,
      "milit": 2911,
      "future": 2912,
      "Europe": 2913,
      "having": 2914,
      "cut": 2915,
      "Israel": 2916,
      "##ands": 2917,
      "arg": 2918,
      "seen": 2919,
      "creat": 2920,
      "done": 2921,
      "result": 2922,
      "##ented": 2923,
      "invol": 2924,
      "Ex": 2925,
      "sing": 2926,
      "##ggest": 2927,
      "manag": 2928,
      "course": 2929,
      "example": 2930,
      "party": 2931,
      "100": 2932,
      "America": 2933,
      "##rug": 2934,
      "several": 2935,
      "makes": 2936,
      "##most": 2937,
      "ant": 2938,
      "However": 2939,
      "asked": 2940,
      "##tt": 2941,
      "##iety": 2942,
      "suggest": 2943,
      "mus": 2944,
      "non": 2945,
      "##30": 2946,
      "##ulation": 2947,
      "##ined": 2948,
      "success": 2949,
      "sour": 2950,
      "2016": 2951,
      "##52": 2952,
      "pract": 2953,
      "likely": 2954,
      "priv": 2955,
      "##ortun": 2956,
      "video": 2957,
      "##cl": 2958,
      "##ror": 2959,
      "##reed": 2960,
      "cho": 2961,
      "possible": 2962,
      "ra": 2963,
      "members": 2964,
      "short": 2965,
      "##par": 2966,
      "##int": 2967,
      "reported": 2968,
      "House": 2969,
      "half": 2970,
      "avail": 2971,
      "Bar": 2972,
      "announ": 2973,
      "Man": 2974,
      "##ended": 2975,
      "##que": 2976,
      "##ats": 2977,
      "Dep": 2978,
      "Ab": 2979,
      "foot": 2980,
      "##ox": 2981,
      "States": 2982,
      "security": 2983,
      "Democrat": 2984,
      "##ilar": 2985,
      "##dd": 2986,
      "##16": 2987,
      "##ubl": 2988,
      "strong": 2989,
      "##utes": 2990,
      "2015": 2991,
      "viol": 2992,
      "yet": 2993,
      "ris": 2994,
      "While": 2995,
      "##raph": 2996,
      "Wor": 2997,
      "toget": 2998,
      "together": 2999,
      "trad": 3000,
      "##AN": 3001,
      "##\u0000\u0000\u0000\u0000\u0000\u0000\u0000\u0000\u0000\u0000\u0000\u0000\u0000\u0000\u0000\u0000\u0000\u0000\u0000\u0000\u0000\u0000\u0000\u0000\u0000\u0000\u0000\u0000\u0000\u0000\u0000\u0000\u0000\u0000\u0000\u0000\u0000\u0000\u0000\u0000\u0000\u0000\u0000\u0000\u0000\u0000\u0000\u0000\u0000\u0000\u0000\u0000\u0000\u0000\u0000\u0000\u0000\u0000\u0000\u0000\u0000\u0000\u0000\u0000\u0000\u0000\u0000\u0000\u0000\u0000\u0000\u0000\u0000\u0000\u0000\u0000\u0000\u0000\u0000\u0000\u0000\u0000\u0000\u0000\u0000\u0000\u0000\u0000\u0000\u0000\u0000\u0000\u0000\u0000\u0000\u0000\u0000\u0000\u0000\u0000\u0000\u0000\u0000\u0000\u0000\u0000\u0000\u0000\u0000\u0000\u0000\u0000\u0000\u0000\u0000\u0000\u0000\u0000\u0000\u0000\u0000\u0000\u0000\u0000\u0000\u0000\u0000\u0000\u0000\u0000\u0000\u0000\u0000\u0000\u0000\u0000\u0000\u0000\u0000\u0000\u0000\u0000\u0000\u0000\u0000\u0000\u0000\u0000\u0000\u0000\u0000\u0000\u0000\u0000\u0000\u0000\u0000\u0000\u0000\u0000\u0000\u0000\u0000\u0000\u0000\u0000\u0000\u0000\u0000\u0000\u0000\u0000\u0000\u0000\u0000\u0000\u0000\u0000\u0000\u0000\u0000\u0000\u0000\u0000\u0000\u0000\u0000\u0000\u0000\u0000\u0000\u0000": 3002,
      "##ming": 3003,
      "##iter": 3004,
      "problem": 3005,
      "believe": 3006,
      "50": 3007,
      "sent": 3008,
      "##ague": 3009,
      "among": 3010,
      "dra": 3011,
      "idea": 3012,
      "Fl": 3013,
      "Se": 3014,
      "la": 3015,
      "##verage": 3016,
      "death": 3017,
      "##avor": 3018,
      ".)": 3019,
      "##54": 3020,
      "##itive": 3021,
      "Not": 3022,
      "Sen": 3023,
      "War": 3024,
      "##12": 3025,
      "Su": 3026,
      "##ourn": 3027,
      "##uly": 3028,
      "local": 3029,
      "##com": 3030,
      "##aster": 3031,
      "##oci": 3032,
      "others": 3033,
      "##book": 3034,
      "##ane": 3035,
      "cond": 3036,
      "close": 3037,
      "##ged": 3038,
      "##uge": 3039,
      "repres": 3040,
      "##by": 3041,
      "Ne": 3042,
      "Now": 3043,
      "mind": 3044,
      "land": 3045,
      "##ai": 3046,
      "##OU": 3047,
      "##hers": 3048,
      "##ones": 3049,
      "enter": 3050,
      "particular": 3051,
      "vers": 3052,
      "rul": 3053,
      "almost": 3054,
      "25": 3055,
      "##ots": 3056,
      "##vert": 3057,
      "##selves": 3058,
      "Do": 3059,
      "##urther": 3060,
      "##gress": 3061,
      "##ows": 3062,
      "Dr": 3063,
      "six": 3064,
      "##isc": 3065,
      "Just": 3066,
      "started": 3067,
      "ben": 3068,
      "lim": 3069,
      "##ring": 3070,
      "##por": 3071,
      "##ination": 3072,
      "##irc": 3073,
      "project": 3074,
      "looking": 3075,
      "##itions": 3076,
      "##let": 3077,
      "comes": 3078,
      "following": 3079,
      "##ividual": 3080,
      "prob": 3081,
      "proper": 3082,
      "##ederal": 3083,
      "##ief": 3084,
      "##ustom": 3085,
      "available": 3086,
      "##lement": 3087,
      "area": 3088,
      "indust": 3089,
      "complete": 3090,
      "##ults": 3091,
      "player": 3092,
      "##ability": 3093,
      "behind": 3094,
      "##itional": 3095,
      "getting": 3096,
      "added": 3097,
      "history": 3098,
      "##07": 3099,
      "compet": 3100,
      "access": 3101,
      "These": 3102,
      "German": 3103,
      "2014": 3104,
      "court": 3105,
      "University": 3106,
      "##ails": 3107,
      "quick": 3108,
      "attem": 3109,
      "sum": 3110,
      "entire": 3111,
      "mor": 3112,
      "ago": 3113,
      "THE": 3114,
      "##eal": 3115,
      "##ipp": 3116,
      "wrote": 3117,
      "##work": 3118,
      "face": 3119,
      "##anies": 3120,
      "chall": 3121,
      "means": 3122,
      "taken": 3123,
      "##osp": 3124,
      "low": 3125,
      "individual": 3126,
      "Cal": 3127,
      "Ke": 3128,
      "##jects": 3129,
      "recent": 3130,
      "trying": 3131,
      "Part": 3132,
      "foc": 3133,
      "publ": 3134,
      "##vir": 3135,
      "##back": 3136,
      "coming": 3137,
      "taking": 3138,
      "rather": 3139,
      "series": 3140,
      "App": 3141,
      "hig": 3142,
      "##14": 3143,
      "##27": 3144,
      "##26": 3145,
      "##ites": 3146,
      "Sec": 3147,
      "tem": 3148,
      "bring": 3149,
      "Canad": 3150,
      "coun": 3151,
      "##88": 3152,
      "nothing": 3153,
      "anything": 3154,
      "study": 3155,
      "issue": 3156,
      "##ashing": 3157,
      "policy": 3158,
      "Cent": 3159,
      "concern": 3160,
      "mult": 3161,
      "miss": 3162,
      "discuss": 3163,
      "vict": 3164,
      "##ches": 3165,
      "##\u0000\u0000\u0000\u0000\u0000\u0000\u0000\u0000\u0000\u0000\u0000\u0000": 3166,
      "##ference": 3167,
      "His": 3168,
      "##nes": 3169,
      "##IS": 3170,
      "Some": 3171,
      "hop": 3172,
      "black": 3173,
      "special": 3174,
      "##ran": 3175,
      "##elf": 3176,
      "##my": 3177,
      "enc": 3178,
      "##viron": 3179,
      "ca": 3180,
      "Image": 3181,
      "##unch": 3182,
      "saying": 3183,
      "live": 3184,
      "##AR": 3185,
      "decision": 3186,
      "wanted": 3187,
      "En": 3188,
      "North": 3189,
      "Par": 3190,
      "rights": 3191,
      "##aper": 3192,
      "exist": 3193,
      "light": 3194,
      "try": 3195,
      "similar": 3196,
      "##inc": 3197,
      "drug": 3198,
      "mess": 3199,
      "nec": 3200,
      "national": 3201,
      "##55": 3202,
      "##use": 3203,
      "star": 3204,
      "##sw": 3205,
      "everything": 3206,
      "key": 3207,
      "National": 3208,
      "##sy": 3209,
      "##reet": 3210,
      "points": 3211,
      "Will": 3212,
      "cult": 3213,
      "##04": 3214,
      "Jan": 3215,
      "either": 3216,
      "##ply": 3217,
      "companies": 3218,
      "room": 3219,
      "##anks": 3220,
      "value": 3221,
      "employ": 3222,
      "current": 3223,
      "describ": 3224,
      "film": 3225,
      "Dec": 3226,
      "bill": 3227,
      "##ES": 3228,
      "Face": 3229,
      "bar": 3230,
      "Pe": 3231,
      "##though": 3232,
      "relations": 3233,
      "character": 3234,
      "bad": 3235,
      "fall": 3236,
      "##24": 3237,
      ".,": 3238,
      "##ung": 3239,
      "Res": 3240,
      "join": 3241,
      "##wards": 3242,
      "Ed": 3243,
      "##89": 3244,
      "action": 3245,
      "matter": 3246,
      "By": 3247,
      "Dav": 3248,
      "China": 3249,
      "El": 3250,
      "custom": 3251,
      "sound": 3252,
      "00": 3253,
      "field": 3254,
      "##lier": 3255,
      "##fic": 3256,
      "##minist": 3257,
      "third": 3258,
      "\".": 3259,
      "fire": 3260,
      "Intern": 3261,
      "lab": 3262,
      "Brit": 3263,
      "Ge": 3264,
      "hit": 3265,
      "front": 3266,
      "World": 3267,
      "##aul": 3268,
      "began": 3269,
      "##ored": 3270,
      "tot": 3271,
      "Har": 3272,
      "##ster": 3273,
      "conv": 3274,
      "meas": 3275,
      "became": 3276,
      "##for": 3277,
      "research": 3278,
      "threat": 3279,
      "##irl": 3280,
      "Eng": 3281,
      "dam": 3282,
      "##br": 3283,
      "##67": 3284,
      "##ades": 3285,
      "impro": 3286,
      "however": 3287,
      "##ully": 3288,
      "benef": 3289,
      "##eter": 3290,
      "exec": 3291,
      "21": 3292,
      "someone": 3293,
      "Mich": 3294,
      "##ids": 3295,
      "stay": 3296,
      "arr": 3297,
      "leaders": 3298,
      "states": 3299,
      "##umb": 3300,
      "else": 3301,
      "24": 3302,
      "house": 3303,
      "sal": 3304,
      "Inst": 3305,
      "##ograph": 3306,
      "Gu": 3307,
      "comb": 3308,
      "##elt": 3309,
      "role": 3310,
      "Aust": 3311,
      "##ape": 3312,
      "provide": 3313,
      "##spec": 3314,
      "final": 3315,
      "create": 3316,
      "Facebook": 3317,
      "isn": 3318,
      "##ify": 3319,
      "2012": 3320,
      "##reme": 3321,
      "##vironment": 3322,
      "itself": 3323,
      "##ively": 3324,
      "super": 3325,
      "Acc": 3326,
      "God": 3327,
      "##35": 3328,
      "##ert": 3329,
      "##attle": 3330,
      "mass": 3331,
      "##ocum": 3332,
      "whole": 3333,
      "military": 3334,
      "released": 3335,
      "##ental": 3336,
      "break": 3337,
      "hom": 3338,
      "space": 3339,
      "circ": 3340,
      "##99": 3341,
      "##ule": 3342,
      "pret": 3343,
      "consum": 3344,
      "development": 3345,
      "##oud": 3346,
      "Ass": 3347,
      "wa": 3348,
      "##ps": 3349,
      "##read": 3350,
      "specific": 3351,
      "Af": 3352,
      "ey": 3353,
      "fig": 3354,
      "##rict": 3355,
      "##80": 3356,
      "gun": 3357,
      "Twitter": 3358,
      "music": 3359,
      "Med": 3360,
      "##usp": 3361,
      "##84": 3362,
      "begin": 3363,
      "anal": 3364,
      "produc": 3365,
      "deep": 3366,
      "billion": 3367,
      "watch": 3368,
      "office": 3369,
      "ball": 3370,
      "opt": 3371,
      "term": 3372,
      "favor": 3373,
      "##asing": 3374,
      "conn": 3375,
      "imm": 3376,
      "40": 3377,
      "led": 3378,
      "body": 3379,
      "pick": 3380,
      "init": 3381,
      "charg": 3382,
      "cann": 3383,
      "themselves": 3384,
      "statement": 3385,
      "ground": 3386,
      "##pite": 3387,
      "##87": 3388,
      "##!!": 3389,
      "outside": 3390,
      "running": 3391,
      "needed": 3392,
      "further": 3393,
      "##ators": 3394,
      "##lim": 3395,
      "signific": 3396,
      "simply": 3397,
      "##ests": 3398,
      "students": 3399,
      "Me": 3400,
      "##10": 3401,
      "##aged": 3402,
      "##iod": 3403,
      "##aid": 3404,
      "##amer": 3405,
      "stri": 3406,
      "true": 3407,
      "##uth": 3408,
      "News": 3409,
      "##60": 3410,
      "himself": 3411,
      "release": 3412,
      "cou": 3413,
      "Rom": 3414,
      "##ayer": 3415,
      "step": 3416,
      "instead": 3417,
      "election": 3418,
      "treat": 3419,
      "ener": 3420,
      "22": 3421,
      "answ": 3422,
      "interview": 3423,
      "##BC": 3424,
      "##ivil": 3425,
      "seems": 3426,
      "##oo": 3427,
      "##coin": 3428,
      "probably": 3429,
      "weeks": 3430,
      "collect": 3431,
      "dou": 3432,
      "##atic": 3433,
      "risk": 3434,
      "cop": 3435,
      "hours": 3436,
      "Mus": 3437,
      "targ": 3438,
      "##iday": 3439,
      "expect": 3440,
      "groups": 3441,
      "chance": 3442,
      "particip": 3443,
      "Ever": 3444,
      "htt": 3445,
      "##abl": 3446,
      "decl": 3447,
      "##iec": 3448,
      "##ried": 3449,
      "profess": 3450,
      "dest": 3451,
      "##zz": 3452,
      "Ag": 3453,
      "##atures": 3454,
      "Washing": 3455,
      "##ilt": 3456,
      "tra": 3457,
      "express": 3458,
      "##uation": 3459,
      "evidence": 3460,
      "respons": 3461,
      "Washington": 3462,
      ":/": 3463,
      "##amed": 3464,
      "saw": 3465,
      "issues": 3466,
      "federal": 3467,
      "self": 3468,
      "2017": 3469,
      "single": 3470,
      "##ED": 3471,
      "forward": 3472,
      "##specially": 3473,
      "dom": 3474,
      "jud": 3475,
      "susp": 3476,
      "##atter": 3477,
      "continue": 3478,
      "Department": 3479,
      "moment": 3480,
      "Jew": 3481,
      "period": 3482,
      "##oke": 3483,
      "##aces": 3484,
      "price": 3485,
      "Clin": 3486,
      "##AS": 3487,
      "deter": 3488,
      "://": 3489,
      "Apr": 3490,
      "sense": 3491,
      "ap": 3492,
      "##sh": 3493,
      "##39": 3494,
      "2013": 3495,
      "cand": 3496,
      "##icro": 3497,
      "##sec": 3498,
      "officials": 3499,
      "##hood": 3500,
      "prim": 3501,
      "##yn": 3502,
      "wasn": 3503,
      "soon": 3504,
      "famil": 3505,
      "general": 3506,
      "hope": 3507,
      "neg": 3508,
      "Off": 3509,
      "mot": 3510,
      "wrong": 3511,
      "minutes": 3512,
      "educ": 3513,
      "technology": 3514,
      "ways": 3515,
      "##ends": 3516,
      "shows": 3517,
      "docum": 3518,
      "##lt": 3519,
      "ste": 3520,
      "##osing": 3521,
      "##ibility": 3522,
      "port": 3523,
      "##arm": 3524,
      "service": 3525,
      "Gr": 3526,
      "account": 3527,
      "personal": 3528,
      "Cong": 3529,
      "##olution": 3530,
      "##obal": 3531,
      "##itted": 3532,
      "address": 3533,
      "significant": 3534,
      "Red": 3535,
      "anim": 3536,
      "June": 3537,
      "##ault": 3538,
      "emer": 3539,
      "##82": 3540,
      "inj": 3541,
      "den": 3542,
      "building": 3543,
      "exc": 3544,
      "share": 3545,
      "abs": 3546,
      "##lex": 3547,
      "White": 3548,
      "March": 3549,
      "walk": 3550,
      "##now": 3551,
      "attempt": 3552,
      "##hod": 3553,
      "##itution": 3554,
      "Clinton": 3555,
      "##irt": 3556,
      "2011": 3557,
      "services": 3558,
      "gender": 3559,
      "##uit": 3560,
      "everyone": 3561,
      "due": 3562,
      "phot": 3563,
      "##yle": 3564,
      "##AL": 3565,
      "infl": 3566,
      "energy": 3567,
      "City": 3568,
      "larg": 3569,
      "oil": 3570,
      "changes": 3571,
      "##ournal": 3572,
      "##aced": 3573,
      "white": 3574,
      "Ste": 3575,
      "Dis": 3576,
      "lost": 3577,
      "suff": 3578,
      "IS": 3579,
      "cover": 3580,
      "financ": 3581,
      "woman": 3582,
      "member": 3583,
      "especially": 3584,
      "aud": 3585,
      "environment": 3586,
      "sold": 3587,
      "results": 3588,
      "repl": 3589,
      "played": 3590,
      "Aug": 3591,
      "##itch": 3592,
      "Sch": 3593,
      "age": 3594,
      "##hel": 3595,
      "alleg": 3596,
      "0147": 3597,
      "##medi": 3598,
      "administ": 3599,
      "ep": 3600,
      "fans": 3601,
      "below": 3602,
      "potential": 3603,
      "Des": 3604,
      "More": 3605,
      "goal": 3606,
      "economic": 3607,
      "Pal": 3608,
      "##33": 3609,
      "##ogn": 3610,
      "##cil": 3611,
      "##59": 3612,
      "##uted": 3613,
      "hear": 3614,
      "above": 3615,
      "According": 3616,
      "South": 3617,
      "##77": 3618,
      "received": 3619,
      "##mb": 3620,
      "##ural": 3621,
      "industry": 3622,
      "pretty": 3623,
      "##ele": 3624,
      "recently": 3625,
      "reve": 3626,
      "##ached": 3627,
      "##86": 3628,
      "##hem": 3629,
      "##istic": 3630,
      "July": 3631,
      "Syri": 3632,
      "necess": 3633,
      "site": 3634,
      "##co": 3635,
      "legal": 3636,
      "questions": 3637,
      "Even": 3638,
      "##51": 3639,
      "longer": 3640,
      "ple": 3641,
      "##ift": 3642,
      "rad": 3643,
      "accept": 3644,
      "playing": 3645,
      "needs": 3646,
      "April": 3647,
      "stru": 3648,
      "position": 3649,
      "##ani": 3650,
      "##isl": 3651,
      "##ett": 3652,
      "##itten": 3653,
      "Cr": 3654,
      "##bor": 3655,
      "##haps": 3656,
      "shoot": 3657,
      "select": 3658,
      "killed": 3659,
      "words": 3660,
      "##ficult": 3661,
      "##onse": 3662,
      "common": 3663,
      "earlier": 3664,
      "speak": 3665,
      "Sept": 3666,
      "div": 3667,
      "##cer": 3668,
      "##--------": 3669,
      "##off": 3670,
      "##ban": 3671,
      "##ux": 3672,
      "##uary": 3673,
      "##ask": 3674,
      "late": 3675,
      "force": 3676,
      "contract": 3677,
      "represent": 3678,
      "lo": 3679,
      "##eed": 3680,
      "online": 3681,
      "sell": 3682,
      "anyone": 3683,
      "Republican": 3684,
      "##oid": 3685,
      "leave": 3686,
      "amount": 3687,
      "opportun": 3688,
      "decided": 3689,
      "##ested": 3690,
      "relig": 3691,
      "difficult": 3692,
      "include": 3693,
      "published": 3694,
      "countries": 3695,
      "popular": 3696,
      "nearly": 3697,
      "code": 3698,
      "tit": 3699,
      "##lam": 3700,
      "cred": 3701,
      "Photo": 3702,
      "Cor": 3703,
      "average": 3704,
      "##port": 3705,
      "dead": 3706,
      "##body": 3707,
      "##ique": 3708,
      "##oph": 3709,
      "present": 3710,
      "Oct": 3711,
      "aw": 3712,
      "mag": 3713,
      "##22": 3714,
      "Per": 3715,
      "vol": 3716,
      "##ham": 3717,
      "##IT": 3718,
      "##irst": 3719,
      "respond": 3720,
      "surpr": 3721,
      "relationship": 3722,
      "refer": 3723,
      "held": 3724,
      "Hill": 3725,
      "coll": 3726,
      "check": 3727,
      "doll": 3728,
      "announced": 3729,
      "living": 3730,
      "turned": 3731,
      "West": 3732,
      "piec": 3733,
      "round": 3734,
      "phys": 3735,
      "function": 3736,
      "focus": 3737,
      "Here": 3738,
      "girl": 3739,
      "heav": 3740,
      "Cont": 3741,
      "rev": 3742,
      "response": 3743,
      "Black": 3744,
      "friends": 3745,
      "rate": 3746,
      "##oon": 3747,
      "##head": 3748,
      "##ittee": 3749,
      "##iddle": 3750,
      "intro": 3751,
      "events": 3752,
      "becom": 3753,
      "original": 3754,
      "Geor": 3755,
      "total": 3756,
      "Congress": 3757,
      "##OS": 3758,
      "increase": 3759,
      "cannot": 3760,
      "Paul": 3761,
      "pur": 3762,
      "review": 3763,
      "##anger": 3764,
      "establ": 3765,
      "?”": 3766,
      "Ear": 3767,
      "Gold": 3768,
      "track": 3769,
      "quite": 3770,
      "problems": 3771,
      "type": 3772,
      "##yr": 3773,
      "##70": 3774,
      "##reg": 3775,
      "block": 3776,
      "immedi": 3777,
      "capt": 3778,
      "cit": 3779,
      "##joy": 3780,
      "protect": 3781,
      "Mond": 3782,
      "Post": 3783,
      "webs": 3784,
      "works": 3785,
      "Tues": 3786,
      "takes": 3787,
      "##asons": 3788,
      "##hern": 3789,
      "##duct": 3790,
      "systems": 3791,
      "easy": 3792,
      "worth": 3793,
      "Sm": 3794,
      "pict": 3795,
      "song": 3796,
      "tal": 3797,
      "content": 3798,
      "version": 3799,
      "David": 3800,
      "nation": 3801,
      "##eign": 3802,
      "norm": 3803,
      "Ang": 3804,
      "base": 3805,
      "##bo": 3806,
      "##aur": 3807,
      "Tuesday": 3808,
      "scient": 3809,
      "candid": 3810,
      "60": 3811,
      "Cour": 3812,
      "##key": 3813,
      "##ogle": 3814,
      "discover": 3815,
      "Gener": 3816,
      "Our": 3817,
      "comment": 3818,
      "##angu": 3819,
      "article": 3820,
      "##ING": 3821,
      "target": 3822,
      "host": 3823,
      "source": 3824,
      "##ival": 3825,
      "cal": 3826,
      "##load": 3827,
      "tool": 3828,
      "happened": 3829,
      "Monday": 3830,
      "##ners": 3831,
      "ide": 3832,
      "Russia": 3833,
      "pain": 3834,
      "##okes": 3835,
      "involved": 3836,
      "bi": 3837,
      "##vil": 3838,
      "##itting": 3839,
      "gen": 3840,
      "gave": 3841,
      "##lev": 3842,
      "users": 3843,
      "##ellig": 3844,
      "terms": 3845,
      "civil": 3846,
      "##19": 3847,
      "sen": 3848,
      "##apan": 3849,
      "road": 3850,
      "huge": 3851,
      "##66": 3852,
      "neigh": 3853,
      "##order": 3854,
      "anti": 3855,
      "Every": 3856,
      "ability": 3857,
      "Google": 3858,
      "vote": 3859,
      "soft": 3860,
      "bank": 3861,
      "Act": 3862,
      "Friday": 3863,
      "##iding": 3864,
      "goes": 3865,
      "leav": 3866,
      "created": 3867,
      "January": 3868,
      "TO": 3869,
      "mater": 3870,
      "##utive": 3871,
      "higher": 3872,
      "Her": 3873,
      "Iran": 3874,
      "Japan": 3875,
      "wide": 3876,
      "##ips": 3877,
      "Of": 3878,
      "pack": 3879,
      "wind": 3880,
      "##lean": 3881,
      "heart": 3882,
      "##pped": 3883,
      "King": 3884,
      "##aut": 3885,
      "##44": 3886,
      "##__": 3887,
      "Cons": 3888,
      "##IC": 3889,
      "capital": 3890,
      "Gl": 3891,
      "exact": 3892,
      "##berg": 3893,
      "##ops": 3894,
      "broad": 3895,
      "##ients": 3896,
      "weap": 3897,
      "##usion": 3898,
      "pred": 3899,
      "simple": 3900,
      "model": 3901,
      "Bec": 3902,
      "Mark": 3903,
      "##ese": 3904,
      "##ises": 3905,
      "Rec": 3906,
      "fear": 3907,
      "page": 3908,
      "##uel": 3909,
      "##rought": 3910,
      "mach": 3911,
      "##ench": 3912,
      "##itor": 3913,
      "##ateg": 3914,
      "August": 3915,
      "27": 3916,
      "##raft": 3917,
      "##ought": 3918,
      "lives": 3919,
      "Then": 3920,
      "Islam": 3921,
      "meeting": 3922,
      "Wed": 3923,
      "##go": 3924,
      "##ging": 3925,
      "Qu": 3926,
      "##ires": 3927,
      "comput": 3928,
      "currently": 3929,
      "international": 3930,
      "Rober": 3931,
      "ban": 3932,
      "##orters": 3933,
      "enjoy": 3934,
      "club": 3935,
      "respect": 3936,
      "lat": 3937,
      "ur": 3938,
      "##room": 3939,
      "##ills": 3940,
      "subst": 3941,
      "##fect": 3942,
      "##gn": 3943,
      "whose": 3944,
      "impact": 3945,
      "method": 3946,
      "quickly": 3947,
      "First": 3948,
      "##ny": 3949,
      "expected": 3950,
      "reports": 3951,
      "laws": 3952,
      "economy": 3953,
      "tou": 3954,
      "thous": 3955,
      "##utions": 3956,
      "Americans": 3957,
      "obs": 3958,
      "##play": 3959,
      "private": 3960,
      "23": 3961,
      "shot": 3962,
      "Char": 3963,
      "##ological": 3964,
      "Calif": 3965,
      "dig": 3966,
      "##69": 3967,
      "heard": 3968,
      "products": 3969,
      "29": 3970,
      "##fully": 3971,
      "AN": 3972,
      "Sw": 3973,
      "##ky": 3974,
      "contrib": 3975,
      "multip": 3976,
      "##ened": 3977,
      "teams": 3978,
      "learn": 3979,
      "staff": 3980,
      "##action": 3981,
      "arri": 3982,
      "lower": 3983,
      "##rain": 3984,
      "built": 3985,
      "network": 3986,
      "felt": 3987,
      "##bed": 3988,
      "##mber": 3989,
      "##onst": 3990,
      "##ana": 3991,
      "Thurs": 3992,
      "langu": 3993,
      "”.": 3994,
      "##RE": 3995,
      "##idents": 3996,
      "From": 3997,
      "European": 3998,
      "500": 3999,
      "hr": 4000,
      "forces": 4001,
      "##uses": 4002,
      "associ": 4003,
      "colle": 4004,
      "McC": 4005,
      "Muslim": 4006,
      "Why": 4007,
      "secret": 4008,
      "poor": 4009,
      "natur": 4010,
      "allowed": 4011,
      "Nove": 4012,
      "cook": 4013,
      "##omm": 4014,
      "##ume": 4015,
      "Russian": 4016,
      "November": 4017,
      "hot": 4018,
      "separ": 4019,
      "##oved": 4020,
      "buy": 4021,
      "reveal": 4022,
      "Most": 4023,
      "bur": 4024,
      "cases": 4025,
      "##izing": 4026,
      "movement": 4027,
      "##arter": 4028,
      "Well": 4029,
      "Party": 4030,
      "Thursday": 4031,
      "fre": 4032,
      "##ilities": 4033,
      "applic": 4034,
      "##vertis": 4035,
      "Feb": 4036,
      "rac": 4037,
      "##aker": 4038,
      "upd": 4039,
      "##epend": 4040,
      "ess": 4041,
      "pull": 4042,
      "##atives": 4043,
      "sn": 4044,
      "##unt": 4045,
      "demand": 4046,
      "engine": 4047,
      "Austral": 4048,
      "mis": 4049,
      "society": 4050,
      "deliver": 4051,
      "situation": 4052,
      "Donald": 4053,
      "global": 4054,
      "director": 4055,
      "##ees": 4056,
      "##iers": 4057,
      "contr": 4058,
      "worked": 4059,
      "regard": 4060,
      "September": 4061,
      "Mo": 4062,
      "et": 4063,
      "##aud": 4064,
      "fell": 4065,
      "##undred": 4066,
      "rules": 4067,
      "da": 4068,
      "##ession": 4069,
      "inside": 4070,
      "legisl": 4071,
      "morning": 4072,
      "Tom": 4073,
      "boy": 4074,
      "vo": 4075,
      "##earc": 4076,
      "defin": 4077,
      "##15": 4078,
      "##aries": 4079,
      "terror": 4080,
      "numbers": 4081,
      "Jer": 4082,
      "bud": 4083,
      "mother": 4084,
      "##ctions": 4085,
      "practice": 4086,
      "completely": 4087,
      "Wednes": 4088,
      "log": 4089,
      "mid": 4090,
      "match": 4091,
      "##cement": 4092,
      "financial": 4093,
      "GO": 4094,
      "Green": 4095,
      "##erve": 4096,
      "##itness": 4097,
      "##iff": 4098,
      "regular": 4099,
      "travel": 4100,
      "Let": 4101,
      "hon": 4102,
      "##na": 4103,
      "reb": 4104,
      "adm": 4105,
      "coach": 4106,
      "##enced": 4107,
      "require": 4108,
      "December": 4109,
      "\",": 4110,
      "loss": 4111,
      "##bb": 4112,
      "seek": 4113,
      "image": 4114,
      "Tex": 4115,
      "##ae": 4116,
      "##ael": 4117,
      "##62": 4118,
      "trade": 4119,
      "offer": 4120,
      "brain": 4121,
      "Police": 4122,
      "material": 4123,
      "Wednesday": 4124,
      "##ze": 4125,
      "##40": 4126,
      "##ges": 4127,
      "##chie": 4128,
      "recogn": 4129,
      "inn": 4130,
      "foreign": 4131,
      "father": 4132,
      "wants": 4133,
      "cause": 4134,
      "knew": 4135,
      "latest": 4136,
      "TV": 4137,
      "##ico": 4138,
      "##aging": 4139,
      "written": 4140,
      "##ength": 4141,
      "brought": 4142,
      "pan": 4143,
      "pers": 4144,
      "reach": 4145,
      "item": 4146,
      "effort": 4147,
      "communic": 4148,
      "Californ": 4149,
      "struct": 4150,
      "##ctor": 4151,
      "safe": 4152,
      "compl": 4153,
      "quality": 4154,
      "phone": 4155,
      "growth": 4156,
      "Court": 4157,
      "mention": 4158,
      "ult": 4159,
      "##lin": 4160,
      "##iction": 4161,
      "Sund": 4162,
      "cy": 4163,
      "er": 4164,
      "##ped": 4165,
      "##val": 4166,
      "production": 4167,
      "oppos": 4168,
      "Super": 4169,
      "Canada": 4170,
      "William": 4171,
      "British": 4172,
      "##cial": 4173,
      "##ishing": 4174,
      "##ruction": 4175,
      "indic": 4176,
      "fair": 4177,
      "##mon": 4178,
      "##alt": 4179,
      "##raz": 4180,
      "text": 4181,
      "extreme": 4182,
      "camer": 4183,
      "##yond": 4184,
      "blood": 4185,
      "object": 4186,
      "victim": 4187,
      "citiz": 4188,
      "Up": 4189,
      "poll": 4190,
      "letter": 4191,
      "couple": 4192,
      "Te": 4193,
      "sens": 4194,
      "##de": 4195,
      "ens": 4196,
      "population": 4197,
      "administration": 4198,
      "wond": 4199,
      "##pect": 4200,
      "hands": 4201,
      "##iant": 4202,
      "##agon": 4203,
      "##ibly": 4204,
      "##unk": 4205,
      "California": 4206,
      "26": 4207,
      "Che": 4208,
      "##97": 4209,
      "attention": 4210,
      "confir": 4211,
      "tried": 4212,
      "performance": 4213,
      "##ceed": 4214,
      "upon": 4215,
      "plat": 4216,
      "defense": 4217,
      "sett": 4218,
      "slow": 4219,
      "Mor": 4220,
      "ill": 4221,
      "via": 4222,
      "##sequ": 4223,
      "2009": 4224,
      "influ": 4225,
      "##AC": 4226,
      "##osh": 4227,
      "Comp": 4228,
      "behav": 4229,
      "Pat": 4230,
      "cast": 4231,
      "range": 4232,
      "##istan": 4233,
      "2010": 4234,
      "size": 4235,
      "##erc": 4236,
      "experi": 4237,
      "box": 4238,
      "movie": 4239,
      "Count": 4240,
      "fem": 4241,
      "##85": 4242,
      "comments": 4243,
      "Int": 4244,
      "October": 4245,
      "##ww": 4246,
      "##8b": 4247,
      "Senate": 4248,
      "corre": 4249,
      "##elligence": 4250,
      "IN": 4251,
      "San": 4252,
      "swe": 4253,
      "##of": 4254,
      "##estern": 4255,
      "##imin": 4256,
      "Sunday": 4257,
      "Get": 4258,
      "UK": 4259,
      "##hib": 4260,
      "##3b": 4261,
      "stuff": 4262,
      "##illed": 4263,
      "extra": 4264,
      "Fin": 4265,
      "liber": 4266,
      "##8f": 4267,
      "##ript": 4268,
      "French": 4269,
      "website": 4270,
      "achie": 4271,
      "progress": 4272,
      "spent": 4273,
      "##enge": 4274,
      "gets": 4275,
      "included": 4276,
      "search": 4277,
      "areas": 4278,
      "plans": 4279,
      "prep": 4280,
      "approach": 4281,
      "##3f": 4282,
      "workers": 4283,
      "##ledge": 4284,
      "challeng": 4285,
      "aren": 4286,
      "scene": 4287,
      "provided": 4288,
      "email": 4289,
      "strugg": 4290,
      "##arian": 4291,
      "happy": 4292,
      "Sand": 4293,
      "lack": 4294,
      "##ening": 4295,
      "##a7": 4296,
      "perfect": 4297,
      "hor": 4298,
      "squ": 4299,
      "##ij": 4300,
      "##3c": 4301,
      "leader": 4302,
      "officers": 4303,
      "speed": 4304,
      "answer": 4305,
      "##iqu": 4306,
      "##ores": 4307,
      "except": 4308,
      "levels": 4309,
      "hundred": 4310,
      "##81": 4311,
      "##apt": 4312,
      "Star": 4313,
      "increasing": 4314,
      "various": 4315,
      "particularly": 4316,
      "table": 4317,
      "##ole": 4318,
      "##oint": 4319,
      "install": 4320,
      "East": 4321,
      "eight": 4322,
      "##FL": 4323,
      "##leep": 4324,
      "clos": 4325,
      "looks": 4326,
      "subject": 4327,
      "career": 4328,
      "talking": 4329,
      "Times": 4330,
      "##igr": 4331,
      "prior": 4332,
      "mur": 4333,
      "Advertis": 4334,
      "danger": 4335,
      "##ki": 4336,
      "##hold": 4337,
      "claims": 4338,
      "draw": 4339,
      "described": 4340,
      "favorite": 4341,
      "bal": 4342,
      "writing": 4343,
      "changed": 4344,
      "Christian": 4345,
      "mill": 4346,
      "town": 4347,
      "##omb": 4348,
      "##akers": 4349,
      "parents": 4350,
      "board": 4351,
      "Coun": 4352,
      "Def": 4353,
      "pen": 4354,
      "race": 4355,
      "##obile": 4356,
      "##aught": 4357,
      "Many": 4358,
      "tre": 4359,
      "features": 4360,
      "looked": 4361,
      "Oh": 4362,
      "Since": 4363,
      "bott": 4364,
      "cross": 4365,
      "sort": 4366,
      "##owers": 4367,
      "finally": 4368,
      "sexual": 4369,
      "message": 4370,
      "culture": 4371,
      "Mon": 4372,
      "cell": 4373,
      "link": 4374,
      "paper": 4375,
      "##where": 4376,
      "##ID": 4377,
      "##LE": 4378,
      "ready": 4379,
      "##inese": 4380,
      "violence": 4381,
      "Satur": 4382,
      "cur": 4383,
      "card": 4384,
      "sat": 4385,
      "##29": 4386,
      "attacks": 4387,
      "summer": 4388,
      "giving": 4389,
      "##light": 4390,
      "##icles": 4391,
      "conduct": 4392,
      "user": 4393,
      "exactly": 4394,
      "tro": 4395,
      "www": 4396,
      "##gest": 4397,
      "##inks": 4398,
      "##uclear": 4399,
      "remain": 4400,
      "imag": 4401,
      "jobs": 4402,
      "investigation": 4403,
      "families": 4404,
      "##ville": 4405,
      "Park": 4406,
      "related": 4407,
      "remember": 4408,
      "redu": 4409,
      "education": 4410,
      "28": 4411,
      "chief": 4412,
      "##ude": 4413,
      "sometimes": 4414,
      "increased": 4415,
      "characters": 4416,
      "##21": 4417,
      "parts": 4418,
      "considered": 4419,
      "##ospital": 4420,
      "fix": 4421,
      "##uing": 4422,
      "##8d": 4423,
      "Chinese": 4424,
      "Saturday": 4425,
      "dark": 4426,
      "##25": 4427,
      "##8c": 4428,
      "##atory": 4429,
      "style": 4430,
      "prec": 4431,
      "Democratic": 4432,
      "##icks": 4433,
      "##ety": 4434,
      "store": 4435,
      "seven": 4436,
      "climate": 4437,
      "certainly": 4438,
      "doub": 4439,
      "##pts": 4440,
      "##ado": 4441,
      "##imately": 4442,
      "##aph": 4443,
      "disapp": 4444,
      "serious": 4445,
      "General": 4446,
      "EU": 4447,
      "##vent": 4448,
      "##ona": 4449,
      "throw": 4450,
      "regul": 4451,
      "efforts": 4452,
      "surv": 4453,
      "Apple": 4454,
      "People": 4455,
      "Soc": 4456,
      "##ament": 4457,
      "spokes": 4458,
      "consist": 4459,
      "student": 4460,
      "reality": 4461,
      "demonst": 4462,
      "fast": 4463,
      "save": 4464,
      "##ously": 4465,
      "resour": 4466,
      "agre": 4467,
      "obv": 4468,
      "guy": 4469,
      "##reedom": 4470,
      "liter": 4471,
      "##bit": 4472,
      "##rief": 4473,
      "##ounts": 4474,
      "interesting": 4475,
      "drive": 4476,
      "Je": 4477,
      "Jack": 4478,
      "carry": 4479,
      "modern": 4480,
      "growing": 4481,
      "visit": 4482,
      "improve": 4483,
      "Lab": 4484,
      "Rub": 4485,
      "##65": 4486,
      "##uf": 4487,
      "##OT": 4488,
      "##ruary": 4489,
      "League": 4490,
      "February": 4491,
      "ele": 4492,
      "##ma": 4493,
      "##hest": 4494,
      "##lying": 4495,
      "##anced": 4496,
      "clean": 4497,
      "##rit": 4498,
      "##45": 4499,
      "wouldn": 4500,
      "disp": 4501,
      "Because": 4502,
      "Ben": 4503,
      "cele": 4504,
      "##oring": 4505,
      "##ston": 4506,
      "##eth": 4507,
      "alone": 4508,
      "blog": 4509,
      "signed": 4510,
      "natural": 4511,
      "Day": 4512,
      "file": 4513,
      "contact": 4514,
      "independ": 4515,
      "effects": 4516,
      "leading": 4517,
      "voters": 4518,
      "platform": 4519,
      "##ondon": 4520,
      "required": 4521,
      "previous": 4522,
      "choice": 4523,
      "Michael": 4524,
      "##het": 4525,
      "##esh": 4526,
      "despite": 4527,
      "calls": 4528,
      "property": 4529,
      "customers": 4530,
      "##bf": 4531,
      "##3d": 4532,
      "##anch": 4533,
      "##arily": 4534,
      "additional": 4535,
      "Reg": 4536,
      "histor": 4537,
      "temper": 4538,
      "##ET": 4539,
      "opportunity": 4540,
      "purp": 4541,
      "Bo": 4542,
      "James": 4543,
      "Other": 4544,
      "paid": 4545,
      "beyond": 4546,
      "prison": 4547,
      "Rich": 4548,
      "##come": 4549,
      "training": 4550,
      "spot": 4551,
      "science": 4552,
      "emot": 4553,
      "critic": 4554,
      "damage": 4555,
      "hous": 4556,
      "##to": 4557,
      "researc": 4558,
      "addition": 4559,
      "veh": 4560,
      "nar": 4561,
      "##fort": 4562,
      "##ables": 4563,
      "##ivity": 4564,
      "flo": 4565,
      "Mil": 4566,
      "Net": 4567,
      "wife": 4568,
      "##like": 4569,
      "##asc": 4570,
      "unf": 4571,
      "cool": 4572,
      "epis": 4573,
      "died": 4574,
      "##oles": 4575,
      "insp": 4576,
      "immediately": 4577,
      "software": 4578,
      "Ber": 4579,
      "London": 4580,
      "##astic": 4581,
      "couldn": 4582,
      "Bill": 4583,
      "rout": 4584,
      "rock": 4585,
      "##49": 4586,
      "write": 4587,
      "maintain": 4588,
      "Democrats": 4589,
      "executive": 4590,
      "primary": 4591,
      "##add": 4592,
      "perhaps": 4593,
      "Republicans": 4594,
      "Minister": 4595,
      "Roman": 4596,
      "gas": 4597,
      "und": 4598,
      "stage": 4599,
      "incident": 4600,
      "Play": 4601,
      "books": 4602,
      "necessary": 4603,
      "Last": 4604,
      "il": 4605,
      "##OM": 4606,
      "conserv": 4607,
      "opin": 4608,
      "##incip": 4609,
      "031": 4610,
      "##EO": 4611,
      "##entially": 4612,
      "although": 4613,
      "quarter": 4614,
      "crime": 4615,
      "80": 4616,
      "gone": 4617,
      "journal": 4618,
      "purch": 4619,
      "ten": 4620,
      "##a9": 4621,
      "##61": 4622,
      "ones": 4623,
      "250": 4624,
      "battle": 4625,
      "dro": 4626,
      "path": 4627,
      "##igan": 4628,
      "reading": 4629,
      "income": 4630,
      "screen": 4631,
      "medical": 4632,
      "receive": 4633,
      "challenge": 4634,
      "##iny": 4635,
      "##oses": 4636,
      "appar": 4637,
      "showed": 4638,
      "reflect": 4639,
      "schools": 4640,
      "##sych": 4641,
      "Afric": 4642,
      "language": 4643,
      "Em": 4644,
      "OF": 4645,
      "##men": 4646,
      "##face": 4647,
      "##urning": 4648,
      "difference": 4649,
      "moved": 4650,
      "##VE": 4651,
      "##rupt": 4652,
      "thinking": 4653,
      "biggest": 4654,
      "date": 4655,
      "tour": 4656,
      "##itute": 4657,
      "##emy": 4658,
      "prices": 4659,
      "Israeli": 4660,
      "counter": 4661,
      "Sam": 4662,
      "nature": 4663,
      "distrib": 4664,
      "Mex": 4665,
      "##lish": 4666,
      "##41": 4667,
      "##acts": 4668,
      "forced": 4669,
      "##venue": 4670,
      "Matt": 4671,
      "nuclear": 4672,
      "son": 4673,
      "##field": 4674,
      "##ales": 4675,
      "##omp": 4676,
      "stories": 4677,
      "2008": 4678,
      "corpor": 4679,
      "speech": 4680,
      "Texas": 4681,
      "Alex": 4682,
      "Like": 4683,
      "ST": 4684,
      "##bur": 4685,
      "##ements": 4686,
      "chair": 4687,
      "repe": 4688,
      "197": 4689,
      "Arab": 4690,
      "details": 4691,
      "costs": 4692,
      "0031": 4693,
      "##isions": 4694,
      "##iminal": 4695,
      "convers": 4696,
      "##using": 4697,
      "trust": 4698,
      "truth": 4699,
      "Thank": 4700,
      "grand": 4701,
      "##aughter": 4702,
      "unique": 4703,
      "##ampions": 4704,
      "feature": 4705,
      "century": 4706,
      "failed": 4707,
      "budget": 4708,
      "Mel": 4709,
      "kids": 4710,
      "##BI": 4711,
      "##ino": 4712,
      "towards": 4713,
      "commer": 4714,
      "Club": 4715,
      "Advertisement": 4716,
      "enfor": 4717,
      "pressure": 4718,
      "meaning": 4719,
      "Internet": 4720,
      "##down": 4721,
      "toward": 4722,
      "unc": 4723,
      "perm": 4724,
      "directly": 4725,
      "illeg": 4726,
      "nom": 4727,
      "##ken": 4728,
      "##ification": 4729,
      "controll": 4730,
      "authorities": 4731,
      "debate": 4732,
      "George": 4733,
      "##rom": 4734,
      "##ground": 4735,
      "##ici": 4736,
      "##olute": 4737,
      "##\u0000\u0000\u0000\u0000\u0000\u0000\u0000\u0000\u0000\u0000\u0000\u0000\u0000\u0000\u0000\u0000\u0000\u0000\u0000\u0000\u0000\u0000\u0000\u0000\u0000\u0000\u0000\u0000\u0000\u0000\u0000\u0000\u0000\u0000\u0000\u0000\u0000\u0000\u0000\u0000\u0000\u0000\u0000\u0000\u0000\u0000\u0000\u0000\u0000\u0000\u0000\u0000\u0000\u0000\u0000\u0000": 4738,
      "starting": 4739,
      "officer": 4740,
      "continued": 4741,
      "prevent": 4742,
      "Bro": 4743,
      "concept": 4744,
      "insur": 4745,
      "football": 4746,
      "(@": 4747,
      "RE": 4748,
      "##iation": 4749,
      "##ander": 4750,
      "##ocr": 4751,
      "implement": 4752,
      "Although": 4753,
      "appears": 4754,
      "majority": 4755,
      "Germany": 4756,
      "Palest": 4757,
      "piece": 4758,
      "sil": 4759,
      "usually": 4760,
      "Street": 4761,
      "roll": 4762,
      "yes": 4763,
      "figure": 4764,
      "thousands": 4765,
      "Over": 4766,
      "Ry": 4767,
      "vac": 4768,
      "scen": 4769,
      "##oyal": 4770,
      "Angel": 4771,
      "Del": 4772,
      "fan": 4773,
      "##ago": 4774,
      "##atever": 4775,
      "moving": 4776,
      "##oul": 4777,
      "##roy": 4778,
      "conference": 4779,
      "##ba": 4780,
      "##ST": 4781,
      "##inary": 4782,
      "agency": 4783,
      "Read": 4784,
      "developed": 4785,
      "Add": 4786,
      "Associ": 4787,
      "Bit": 4788,
      "Ser": 4789,
      "esc": 4790,
      "named": 4791,
      "shall": 4792,
      "assist": 4793,
      "center": 4794,
      "cat": 4795,
      "gives": 4796,
      "reasons": 4797,
      "##uty": 4798,
      "wel": 4799,
      "shown": 4800,
      "http": 4801,
      "##ION": 4802,
      "exch": 4803,
      "##ype": 4804,
      "bitcoin": 4805,
      "lik": 4806,
      "India": 4807,
      "title": 4808,
      "stra": 4809,
      "qual": 4810,
      "winning": 4811,
      "##ENT": 4812,
      "neighbor": 4813,
      "During": 4814,
      "Mag": 4815,
      "aim": 4816,
      "drop": 4817,
      "wild": 4818,
      "##arch": 4819,
      "spir": 4820,
      "encour": 4821,
      "ign": 4822,
      "rob": 4823,
      "##42": 4824,
      "##wood": 4825,
      "princip": 4826,
      "##ression": 4827,
      "throughout": 4828,
      "politics": 4829,
      "organization": 4830,
      "beginning": 4831,
      "31": 4832,
      "##iment": 4833,
      "teac": 4834,
      "cris": 4835,
      "guys": 4836,
      "Two": 4837,
      "MS": 4838,
      "##olic": 4839,
      "##ocks": 4840,
      "meant": 4841,
      "Govern": 4842,
      "presidential": 4843,
      "Syria": 4844,
      "County": 4845,
      "mix": 4846,
      "##df": 4847,
      "##cast": 4848,
      "##rec": 4849,
      "color": 4850,
      "powerful": 4851,
      "Jewish": 4852,
      "Council": 4853,
      "Follow": 4854,
      "Game": 4855,
      "har": 4856,
      "kept": 4857,
      "pus": 4858,
      "sect": 4859,
      "##ocked": 4860,
      "complex": 4861,
      "35": 4862,
      "90": 4863,
      "firm": 4864,
      "Art": 4865,
      "Tor": 4866,
      "##ram": 4867,
      "##lant": 4868,
      "intelligence": 4869,
      "twe": 4870,
      "2007": 4871,
      "Tod": 4872,
      "ahead": 4873,
      "fine": 4874,
      "##ari": 4875,
      "beat": 4876,
      "##ida": 4877,
      "##owl": 4878,
      "web": 4879,
      "prosec": 4880,
      "remains": 4881,
      "maybe": 4882,
      "avoid": 4883,
      "eventually": 4884,
      "Law": 4885,
      "middle": 4886,
      "ver": 4887,
      "##inter": 4888,
      "recomm": 4889,
      "di": 4890,
      "##uk": 4891,
      "##ares": 4892,
      "ord": 4893,
      "##oster": 4894,
      "expand": 4895,
      "myself": 4896,
      "##encies": 4897,
      "conditions": 4898,
      "alleged": 4899,
      "Ira": 4900,
      "See": 4901,
      "jump": 4902,
      "##lick": 4903,
      "Any": 4904,
      "Phil": 4905,
      "standard": 4906,
      "origin": 4907,
      "English": 4908,
      "dollars": 4909,
      "introduc": 4910,
      "witness": 4911,
      "charge": 4912,
      "fighting": 4913,
      "Flor": 4914,
      "benefits": 4915,
      "analys": 4916,
      "murder": 4917,
      "70": 4918,
      "som": 4919,
      "##aint": 4920,
      "saf": 4921,
      "appeared": 4922,
      "promot": 4923,
      "citizens": 4924,
      "hur": 4925,
      "lif": 4926,
      "##orney": 4927,
      "##idge": 4928,
      "door": 4929,
      "touch": 4930,
      "##ufact": 4931,
      "##ara": 4932,
      "##istry": 4933,
      "surve": 4934,
      "critical": 4935,
      "charges": 4936,
      "shooting": 4937,
      "ideas": 4938,
      "Cath": 4939,
      "##put": 4940,
      "ang": 4941,
      "projects": 4942,
      "uses": 4943,
      "##ension": 4944,
      "45": 4945,
      "Sim": 4946,
      "YOU": 4947,
      "iP": 4948,
      "option": 4949,
      "uns": 4950,
      "##ipe": 4951,
      "Att": 4952,
      "argum": 4953,
      "International": 4954,
      "religious": 4955,
      "multiple": 4956,
      "names": 4957,
      "thr": 4958,
      "##iced": 4959,
      "peace": 4960,
      "arm": 4961,
      "0152": 4962,
      "includes": 4963,
      "measure": 4964,
      "Kore": 4965,
      "##yl": 4966,
      "##IL": 4967,
      "##owd": 4968,
      "league": 4969,
      "decades": 4970,
      "knowledge": 4971,
      "Met": 4972,
      "virt": 4973,
      "##orter": 4974,
      "##irth": 4975,
      "##ibr": 4976,
      "Union": 4977,
      "allows": 4978,
      "device": 4979,
      "Iraq": 4980,
      ".’": 4981,
      "der": 4982,
      "##cf": 4983,
      "##omen": 4984,
      "##iverse": 4985,
      "minor": 4986,
      "easily": 4987,
      "Center": 4988,
      "celebr": 4989,
      "shared": 4990,
      "conflic": 4991,
      "High": 4992,
      "II": 4993,
      "Jud": 4994,
      "Sun": 4995,
      "Yes": 4996,
      "cities": 4997,
      "##ugg": 4998,
      "teach": 4999,
      "relative": 5000,
      "helped": 5001,
      "dat": 5002,
      "nice": 5003,
      "theory": 5004,
      "deg": 5005,
      "spend": 5006,
      "actions": 5007,
      "0327": 5008,
      "France": 5009,
      "advant": 5010,
      "launch": 5011,
      "eyes": 5012,
      "items": 5013,
      "Press": 5014,
      "##90": 5015,
      "##enty": 5016,
      "note": 5017,
      "adding": 5018,
      "region": 5019,
      "Wind": 5020,
      "kick": 5021,
      "micro": 5022,
      "park": 5023,
      "##\u0000\u0000\u0000\u0000\u0000\u0000\u0000\u0000\u0000\u0000\u0000\u0000\u0000\u0000\u0000\u0000\u0000\u0000\u0000\u0000\u0000\u0000\u0000\u0000": 5024,
      "##utor": 5025,
      "individuals": 5026,
      "Your": 5027,
      "##IA": 5028,
      "sched": 5029,
      "lawy": 5030,
      "reduc": 5031,
      "traditional": 5032,
      "rise": 5033,
      "beaut": 5034,
      "notes": 5035,
      "Chic": 5036,
      "physical": 5037,
      "Sl": 5038,
      "##d7": 5039,
      "##gers": 5040,
      "##lease": 5041,
      "beg": 5042,
      "##roll": 5043,
      "##rian": 5044,
      "criminal": 5045,
      "feed": 5046,
      "Also": 5047,
      "passed": 5048,
      "weapons": 5049,
      ".'": 5050,
      "lic": 5051,
      "##b7": 5052,
      "##iate": 5053,
      "##aa": 5054,
      "##aming": 5055,
      "compared": 5056,
      "grad": 5057,
      "0150": 5058,
      "designed": 5059,
      "?\"": 5060,
      "School": 5061,
      "##ada": 5062,
      "##iled": 5063,
      "knows": 5064,
      "##azing": 5065,
      "believed": 5066,
      "claimed": 5067,
      "concerns": 5068,
      "absolute": 5069,
      "correct": 5070,
      "Us": 5071,
      "ice": 5072,
      "wat": 5073,
      "##vin": 5074,
      "##onents": 5075,
      "attract": 5076,
      "smart": 5077,
      "cars": 5078,
      "devices": 5079,
      "Er": 5080,
      "mist": 5081,
      "##ek": 5082,
      "##ris": 5083,
      "##ulated": 5084,
      "Franc": 5085,
      "Frank": 5086,
      "determin": 5087,
      "normal": 5088,
      "map": 5089,
      "san": 5090,
      "sleep": 5091,
      "##iance": 5092,
      "##cle": 5093,
      "##gency": 5094,
      "manufact": 5095,
      "autom": 5096,
      "safety": 5097,
      "Chicago": 5098,
      "Mod": 5099,
      "Rob": 5100,
      "##iar": 5101,
      "calling": 5102,
      "send": 5103,
      "##unched": 5104,
      "brother": 5105,
      "limited": 5106,
      "frequ": 5107,
      "Air": 5108,
      "Bay": 5109,
      "rare": 5110,
      "##set": 5111,
      "##iring": 5112,
      "altern": 5113,
      "ended": 5114,
      "slight": 5115,
      "feeling": 5116,
      "Micro": 5117,
      "Val": 5118,
      "born": 5119,
      "##c7": 5120,
      "##raw": 5121,
      "scale": 5122,
      "Who": 5123,
      "seeing": 5124,
      "Once": 5125,
      "drink": 5126,
      "restaur": 5127,
      "researchers": 5128,
      "Da": 5129,
      "band": 5130,
      "wall": 5131,
      "##e7": 5132,
      "##icient": 5133,
      "##imum": 5134,
      "org": 5135,
      "inte": 5136,
      "closed": 5137,
      "##ube": 5138,
      "yourself": 5139,
      "##ressed": 5140,
      "central": 5141,
      "distin": 5142,
      "AND": 5143,
      "Fe": 5144,
      "Mart": 5145,
      "##wh": 5146,
      "reached": 5147,
      "church": 5148,
      "spread": 5149,
      "posted": 5150,
      "seemed": 5151,
      "##iament": 5152,
      "computer": 5153,
      "cru": 5154,
      "freedom": 5155,
      "##aches": 5156,
      "exam": 5157,
      "trou": 5158,
      "Commun": 5159,
      "Florida": 5160,
      "Pri": 5161,
      "##\u0000\u0000\u0000\u0000\u0000\u0000\u0000\u0000\u0000\u0000\u0000\u0000\u0000\u0000\u0000\u0000\u0000\u0000\u0000\u0000\u0000\u0000\u0000\u0000\u0000\u0000\u0000\u0000\u0000\u0000\u0000\u0000\u0000\u0000\u0000\u0000\u0000\u0000\u0000\u0000": 5162,
      "##iles": 5163,
      "offered": 5164,
      "followed": 5165,
      "previously": 5166,
      "sources": 5167,
      "larger": 5168,
      "300": 5169,
      "##bum": 5170,
      "##iot": 5171,
      "##PA": 5172,
      "##antly": 5173,
      "spending": 5174,
      "Inc": 5175,
      "draft": 5176,
      "picture": 5177,
      "hospital": 5178,
      "rule": 5179,
      "##AM": 5180,
      "##umn": 5181,
      "arch": 5182,
      "##gypt": 5183,
      "produced": 5184,
      "treatment": 5185,
      "https": 5186,
      "crisis": 5187,
      "Egypt": 5188,
      "Port": 5189,
      "##band": 5190,
      "##itely": 5191,
      "belief": 5192,
      "Instead": 5193,
      "AT": 5194,
      "Bel": 5195,
      "River": 5196,
      "##5f": 5197,
      "##zen": 5198,
      "beer": 5199,
      "agreed": 5200,
      "telev": 5201,
      "positive": 5202,
      "mobile": 5203,
      "##liament": 5204,
      "##AD": 5205,
      "0146": 5206,
      "brand": 5207,
      "Commission": 5208,
      "holding": 5209,
      "successful": 5210,
      "Smith": 5211,
      "rap": 5212,
      "##ero": 5213,
      "hearing": 5214,
      "display": 5215,
      "##ancy": 5216,
      "objects": 5217,
      "Leg": 5218,
      "manager": 5219,
      "drugs": 5220,
      "candidate": 5221,
      "voice": 5222,
      "brief": 5223,
      "##ha": 5224,
      "##rel": 5225,
      "parties": 5226,
      "prefer": 5227,
      "acqu": 5228,
      "document": 5229,
      "largest": 5230,
      "tools": 5231,
      "camera": 5232,
      "straight": 5233,
      "cry": 5234,
      "##c9": 5235,
      "##itc": 5236,
      "whom": 5237,
      "##airs": 5238,
      "highly": 5239,
      "politic": 5240,
      "learned": 5241,
      "resources": 5242,
      "Cap": 5243,
      "Sub": 5244,
      "Western": 5245,
      "fa": 5246,
      "##b9": 5247,
      "street": 5248,
      "noted": 5249,
      "Another": 5250,
      "labor": 5251,
      "credit": 5252,
      "becomes": 5253,
      "Today": 5254,
      "Sir": 5255,
      "##oes": 5256,
      "##icted": 5257,
      "programs": 5258,
      "senior": 5259,
      "##orks": 5260,
      "whatever": 5261,
      "wealth": 5262,
      "##eless": 5263,
      "estim": 5264,
      "records": 5265,
      "machine": 5266,
      "NFL": 5267,
      "##BA": 5268,
      "0000002": 5269,
      "##ghan": 5270,
      "offers": 5271,
      "actual": 5272,
      "2006": 5273,
      "detail": 5274,
      "trial": 5275,
      "solution": 5276,
      "##ocracy": 5277,
      "Ter": 5278,
      "eat": 5279,
      "##oly": 5280,
      "##ties": 5281,
      "##ping": 5282,
      "crowd": 5283,
      "Indian": 5284,
      "Liber": 5285,
      "Vir": 5286,
      "][": 5287,
      "cash": 5288,
      "dream": 5289,
      "##fl": 5290,
      "AM": 5291,
      "border": 5292,
      "birth": 5293,
      "green": 5294,
      "##ias": 5295,
      "##a0": 5296,
      "haven": 5297,
      "album": 5298,
      "serve": 5299,
      "assault": 5300,
      "images": 5301,
      "Brown": 5302,
      "Scott": 5303,
      "choose": 5304,
      ".\u0000\u0000\u0000\u0000\u0000\u0000\u0000\u0000\u0000\u0000\u0000\u0000\u0000\u0000\u0000\u0000\u0000\u0000\u0000\u0000\u0000\u0000\u0000\u0000\u0000\u0000\u0000\u0000\u0000\u0000\u0000\u0000\u0000\u0000\u0000\u0000\u0000\u0000\u0000\u0000\u0000\u0000\u0000\u0000\u0000\u0000\u0000\u0000\u0000\u0000\u0000\u0000\u0000\u0000\u0000\u0000\u0000\u0000\u0000\u0000\u0000\u0000\u0000\u0000\u0000\u0000\u0000\u0000\u0000\u0000\u0000\u0000\u0000\u0000\u0000\u0000\u0000\u0000\u0000\u0000\u0000\u0000\u0000\u0000\u0000\u0000\u0000\u0000\u0000\u0000\u0000\u0000\u0000\u0000\u0000\u0000\u0000\u0000\u0000\u0000\u0000\u0000\u0000\u0000\u0000\u0000\u0000\u0000\u0000\u0000\u0000\u0000\u0000\u0000\u0000\u0000\u0000\u0000\u0000\u0000\u0000\u0000\u0000\u0000\u0000\u0000\u0000\u0000\u0000\u0000\u0000\u0000\u0000\u0000\u0000\u0000\u0000\u0000\u0000\u0000\u0000\u0000\u0000\u0000\u0000\u0000\u0000\u0000\u0000\u0000\u0000\u0000\u0000\u0000\u0000\u0000\u0000\u0000\u0000\u0000\u0000\u0000\u0000\u0000\u0000\u0000\u0000\u0000\u0000\u0000\u0000\u0000\u0000\u0000\u0000\u0000\u0000\u0000\u0000\u0000\u0000\u0000\u0000\u0000\u0000\u0000\u0000\u0000\u0000\u0000\u0000\u0000": 5305,
      "##d9": 5306,
      "##ão": 5307,
      "##itz": 5308,
      "##oper": 5309,
      "imposs": 5310,
      "produce": 5311,
      "policies": 5312,
      "college": 5313,
      "Palestin": 5314,
      "!”": 5315,
      "Under": 5316,
      "die": 5317,
      "basic": 5318,
      "raised": 5319,
      "millions": 5320,
      "Sil": 5321,
      "bed": 5322,
      "lay": 5323,
      "##den": 5324,
      "propos": 5325,
      "sales": 5326,
      "connect": 5327,
      "Bu": 5328,
      "Great": 5329,
      "Lin": 5330,
      "Serv": 5331,
      "##rated": 5332,
      "##rol": 5333,
      "##ords": 5334,
      "fully": 5335,
      "clearly": 5336,
      "wait": 5337,
      "section": 5338,
      "##inated": 5339,
      "##onent": 5340,
      "happens": 5341,
      "emb": 5342,
      "Committee": 5343,
      ".\u0000\u0000\u0000\u0000\u0000\u0000\u0000\u0000\u0000\u0000\u0000\u0000\u0000\u0000\u0000\u0000\u0000\u0000\u0000\u0000\u0000\u0000\u0000\u0000\u0000\u0000\u0000\u0000\u0000\u0000\u0000\u0000\u0000\u0000\u0000\u0000\u0000\u0000\u0000\u0000\u0000\u0000\u0000\u0000\u0000\u0000\u0000\u0000\u0000\u0000\u0000\u0000\u0000\u0000\u0000\u0000\u0000\u0000\u0000\u0000\u0000\u0000\u0000\u0000\u0000\u0000\u0000\u0000\u0000\u0000\u0000\u0000\u0000\u0000\u0000\u0000\u0000\u0000\u0000\u0000\u0000\u0000\u0000\u0000\u0000\u0000\u0000\u0000\u0000\u0000\u0000\u0000\u0000\u0000\u0000\u0000\u0000\u0000\u0000\u0000\u0000\u0000\u0000\u0000\u0000\u0000\u0000\u0000\u0000\u0000\u0000\u0000\u0000\u0000\u0000\u0000\u0000\u0000\u0000\u0000\u0000\u0000\u0000\u0000\u0000\u0000\u0000\u0000": 5344,
      "rich": 5345,
      "rates": 5346,
      "##inger": 5347,
      "Those": 5348,
      "Player": 5349,
      "organiz": 5350,
      "identity": 5351,
      "creating": 5352,
      "Despite": 5353,
      "):": 5354,
      "lose": 5355,
      "##rum": 5356,
      "##ros": 5357,
      "station": 5358,
      "excl": 5359,
      "prem": 5360,
      "blue": 5361,
      "33": 5362,
      "##23": 5363,
      "##ining": 5364,
      "Their": 5365,
      "adj": 5366,
      "subm": 5367,
      "operations": 5368,
      "animals": 5369,
      "digital": 5370,
      "commercial": 5371,
      "AP": 5372,
      "Ham": 5373,
      "Please": 5374,
      "agree": 5375,
      "##orders": 5376,
      "Church": 5377,
      "amb": 5378,
      "asking": 5379,
      "##board": 5380,
      "associated": 5381,
      "daily": 5382,
      "episode": 5383,
      "opinion": 5384,
      "somew": 5385,
      "integr": 5386,
      "Stud": 5387,
      "supposed": 5388,
      "minute": 5389,
      "greater": 5390,
      "heavy": 5391,
      "separate": 5392,
      "Australia": 5393,
      "##gar": 5394,
      "traff": 5395,
      "Step": 5396,
      "refuge": 5397,
      "values": 5398,
      "understanding": 5399,
      "##while": 5400,
      "hy": 5401,
      "gold": 5402,
      "runs": 5403,
      "Michigan": 5404,
      "analy": 5405,
      "0319": 5406,
      "Bitcoin": 5407,
      "”,": 5408,
      "##wise": 5409,
      "##sey": 5410,
      "supporters": 5411,
      "Atlant": 5412,
      "learning": 5413,
      ".\u0000\u0000\u0000\u0000\u0000\u0000\u0000\u0000\u0000\u0000\u0000\u0000\u0000\u0000\u0000\u0000\u0000\u0000\u0000\u0000\u0000\u0000\u0000\u0000\u0000\u0000\u0000\u0000\u0000\u0000\u0000\u0000\u0000\u0000\u0000\u0000\u0000\u0000\u0000\u0000\u0000\u0000\u0000\u0000\u0000\u0000\u0000\u0000\u0000\u0000\u0000\u0000\u0000\u0000\u0000\u0000\u0000\u0000\u0000\u0000\u0000\u0000\u0000\u0000\u0000\u0000\u0000\u0000\u0000\u0000\u0000\u0000\u0000\u0000\u0000\u0000\u0000\u0000\u0000\u0000\u0000\u0000\u0000\u0000\u0000\u0000\u0000\u0000\u0000\u0000\u0000\u0000\u0000\u0000\u0000\u0000\u0000\u0000\u0000\u0000\u0000\u0000\u0000\u0000\u0000\u0000\u0000\u0000\u0000\u0000\u0000\u0000\u0000\u0000\u0000\u0000\u0000\u0000\u0000\u0000\u0000\u0000\u0000\u0000\u0000\u0000\u0000\u0000\u0000\u0000\u0000\u0000\u0000\u0000\u0000\u0000\u0000\u0000\u0000\u0000\u0000\u0000\u0000\u0000\u0000\u0000\u0000\u0000\u0000\u0000\u0000\u0000\u0000\u0000\u0000\u0000\u0000\u0000\u0000\u0000\u0000\u0000\u0000\u0000\u0000\u0000\u0000\u0000\u0000\u0000\u0000\u0000\u0000\u0000\u0000\u0000\u0000\u0000\u0000\u0000\u0000\u0000\u0000\u0000\u0000\u0000\u0000\u0000\u0000\u0000\u0000\u0000\u0000\u0000\u0000\u0000\u0000\u0000\u0000\u0000\u0000\u0000\u0000\u0000\u0000\u0000\u0000\u0000\u0000\u0000\u0000\u0000\u0000\u0000\u0000\u0000\u0000\u0000\u0000\u0000\u0000\u0000\u0000\u0000\u0000\u0000\u0000\u0000\u0000\u0000\u0000\u0000\u0000\u0000\u0000\u0000\u0000\u0000\u0000\u0000\u0000\u0000\u0000\u0000\u0000\u0000\u0000\u0000\u0000\u0000\u0000\u0000\u0000\u0000\u0000\u0000\u0000\u0000\u0000\u0000\u0000\u0000\u0000\u0000\u0000\u0000\u0000\u0000\u0000\u0000\u0000\u0000\u0000\u0000\u0000\u0000\u0000\u0000\u0000\u0000\u0000\u0000\u0000\u0000\u0000\u0000\u0000\u0000\u0000\u0000\u0000\u0000\u0000\u0000\u0000\u0000\u0000\u0000\u0000\u0000\u0000\u0000\u0000\u0000\u0000\u0000\u0000\u0000\u0000\u0000\u0000\u0000\u0000\u0000\u0000\u0000\u0000\u0000\u0000\u0000\u0000\u0000\u0000\u0000\u0000\u0000\u0000\u0000\u0000\u0000\u0000\u0000\u0000\u0000\u0000\u0000\u0000\u0000\u0000\u0000\u0000\u0000\u0000\u0000\u0000\u0000\u0000\u0000\u0000\u0000\u0000\u0000\u0000\u0000\u0000\u0000\u0000\u0000\u0000\u0000\u0000\u0000\u0000\u0000\u0000\u0000\u0000\u0000\u0000\u0000\u0000\u0000\u0000\u0000\u0000\u0000\u0000\u0000\u0000\u0000\u0000\u0000\u0000\u0000": 5414,
      "limit": 5415,
      "eye": 5416,
      "Are": 5417,
      "Bank": 5418,
      "gay": 5419,
      "purs": 5420,
      "##a6": 5421,
      "##83": 5422,
      "notice": 5423,
      "adop": 5424,
      "explained": 5425,
      "Justice": 5426,
      "leadership": 5427,
      "ensure": 5428,
      "Mal": 5429,
      "##bc": 5430,
      "##bl": 5431,
      "##vest": 5432,
      "##EC": 5433,
      "##erved": 5434,
      "##aked": 5435,
      "massive": 5436,
      "photos": 5437,
      "Earth": 5438,
      "revealed": 5439,
      "UN": 5440,
      "ren": 5441,
      "reform": 5442,
      "photo": 5443,
      "activity": 5444,
      "options": 5445,
      "analysis": 5446,
      "Lou": 5447,
      "##53": 5448,
      "reject": 5449,
      "##ulate": 5450,
      "Aut": 5451,
      "defe": 5452,
      "minister": 5453,
      "advoc": 5454,
      "miles": 5455,
      "condition": 5456,
      "discovered": 5457,
      "wonder": 5458,
      "achieve": 5459,
      "agreement": 5460,
      "Good": 5461,
      "batter": 5462,
      "eth": 5463,
      "mer": 5464,
      "##box": 5465,
      "##uman": 5466,
      "proud": 5467,
      "willing": 5468,
      "defend": 5469,
      "protest": 5470,
      "request": 5471,
      "Afghan": 5472,
      "female": 5473,
      "37": 5474,
      "hack": 5475,
      "##rey": 5476,
      "##icip": 5477,
      "##urb": 5478,
      "##abor": 5479,
      "accused": 5480,
      "putting": 5481,
      "opening": 5482,
      "occas": 5483,
      "opposition": 5484,
      "WH": 5485,
      "##e9": 5486,
      "##ray": 5487,
      "##cell": 5488,
      "obtain": 5489,
      "transform": 5490,
      "continues": 5491,
      "basis": 5492,
      "highest": 5493,
      "confirmed": 5494,
      "Tur": 5495,
      "hus": 5496,
      "##outhern": 5497,
      "places": 5498,
      "##bert": 5499,
      "Trans": 5500,
      "generally": 5501,
      "location": 5502,
      "Mont": 5503,
      "PC": 5504,
      "##ease": 5505,
      "##ford": 5506,
      "incred": 5507,
      "##ounds": 5508,
      "feet": 5509,
      "##ography": 5510,
      "leaving": 5511,
      "impossible": 5512,
      "Mike": 5513,
      "ded": 5514,
      "gather": 5515,
      "goals": 5516,
      "commit": 5517,
      "0151": 5518,
      "types": 5519,
      "occurr": 5520,
      "##ortunately": 5521,
      "##\u0000\u0000\u0000\u0000\u0000\u0000\u0000\u0000\u0000\u0000\u0000\u0000\u0000\u0000": 5522,
      "benefit": 5523,
      "destroy": 5524,
      "talks": 5525,
      "Jeff": 5526,
      "##2f": 5527,
      "##arant": 5528,
      "overall": 5529,
      "investment": 5530,
      "chem": 5531,
      "opened": 5532,
      "Security": 5533,
      "Hillary": 5534,
      "Power": 5535,
      "mount": 5536,
      "##ya": 5537,
      "novel": 5538,
      "communities": 5539,
      "telling": 5540,
      "management": 5541,
      "responsible": 5542,
      "extremely": 5543,
      "hundreds": 5544,
      "advantage": 5545,
      "PR": 5546,
      "##63": 5547,
      "##OL": 5548,
      "hair": 5549,
      "shop": 5550,
      "prin": 5551,
      "identified": 5552,
      "competition": 5553,
      "arrested": 5554,
      "introduced": 5555,
      "Los": 5556,
      "MP": 5557,
      "powers": 5558,
      "##bon": 5559,
      "##riage": 5560,
      "##rett": 5561,
      "initial": 5562,
      "Dist": 5563,
      "cards": 5564,
      "rank": 5565,
      "##cing": 5566,
      "##WC": 5567,
      "##icy": 5568,
      "sports": 5569,
      "department": 5570,
      "Joe": 5571,
      "AB": 5572,
      "Uk": 5573,
      "tend": 5574,
      "vul": 5575,
      "##dom": 5576,
      "##1f": 5577,
      "##13": 5578,
      "heat": 5579,
      "##ager": 5580,
      "farm": 5581,
      "Phot": 5582,
      "##echan": 5583,
      "funding": 5584,
      "effective": 5585,
      "bottom": 5586,
      "32": 5587,
      "caught": 5588,
      "ir": 5589,
      "psych": 5590,
      "##iable": 5591,
      "##me": 5592,
      "##5d": 5593,
      "##FC": 5594,
      "appeal": 5595,
      "professional": 5596,
      "Islamic": 5597,
      "elements": 5598,
      "enforcement": 5599,
      "Big": 5600,
      "Mac": 5601,
      "Rel": 5602,
      "tick": 5603,
      "##bow": 5604,
      "thus": 5605,
      "stre": 5606,
      "##illing": 5607,
      "truly": 5608,
      "assum": 5609,
      "surround": 5610,
      "negot": 5611,
      "television": 5612,
      "Virgin": 5613,
      "Sour": 5614,
      "fat": 5615,
      "male": 5616,
      "##AY": 5617,
      "##iller": 5618,
      "ship": 5619,
      "##anted": 5620,
      "residents": 5621,
      "amazing": 5622,
      "returned": 5623,
      "Carol": 5624,
      "documents": 5625,
      "Government": 5626,
      "##\u0000\u0000\u0000\u0000\u0000\u0000\u0000\u0000\u0000\u0000\u0000\u0000\u0000": 5627,
      "##yright": 5628,
      "coin": 5629,
      "fant": 5630,
      "hate": 5631,
      "pun": 5632,
      "push": 5633,
      "stream": 5634,
      "abuse": 5635,
      "Chris": 5636,
      "standing": 5637,
      "launched": 5638,
      "becoming": 5639,
      "Williams": 5640,
      "illegal": 5641,
      "=\"": 5642,
      "Op": 5643,
      "mission": 5644,
      "##ront": 5645,
      "##mine": 5646,
      "##St": 5647,
      "studies": 5648,
      ".\u0000\u0000\u0000\u0000\u0000\u0000\u0000\u0000\u0000\u0000\u0000\u0000\u0000\u0000\u0000\u0000\u0000\u0000\u0000\u0000\u0000\u0000\u0000\u0000\u0000\u0000\u0000\u0000\u0000\u0000\u0000\u0000\u0000\u0000\u0000\u0000\u0000\u0000\u0000\u0000\u0000\u0000\u0000\u0000\u0000\u0000\u0000\u0000\u0000\u0000\u0000\u0000\u0000\u0000\u0000\u0000\u0000\u0000\u0000\u0000\u0000\u0000\u0000\u0000\u0000\u0000\u0000\u0000\u0000\u0000\u0000\u0000\u0000\u0000\u0000\u0000\u0000\u0000\u0000\u0000\u0000\u0000\u0000\u0000\u0000\u0000\u0000\u0000\u0000\u0000\u0000\u0000\u0000\u0000\u0000\u0000\u0000\u0000\u0000\u0000\u0000\u0000\u0000\u0000\u0000\u0000\u0000\u0000\u0000\u0000\u0000\u0000\u0000\u0000\u0000\u0000\u0000\u0000\u0000\u0000\u0000\u0000\u0000\u0000\u0000\u0000\u0000\u0000\u0000\u0000\u0000\u0000\u0000\u0000\u0000\u0000\u0000\u0000\u0000\u0000\u0000\u0000\u0000\u0000\u0000\u0000\u0000\u0000\u0000\u0000\u0000\u0000\u0000\u0000\u0000\u0000\u0000\u0000\u0000\u0000\u0000\u0000\u0000\u0000\u0000\u0000\u0000\u0000\u0000\u0000\u0000\u0000\u0000\u0000\u0000\u0000\u0000\u0000\u0000\u0000\u0000\u0000\u0000\u0000\u0000\u0000\u0000\u0000\u0000\u0000\u0000\u0000\u0000\u0000\u0000\u0000\u0000\u0000\u0000\u0000\u0000\u0000\u0000\u0000\u0000\u0000\u0000\u0000\u0000\u0000\u0000\u0000\u0000\u0000\u0000\u0000\u0000\u0000\u0000\u0000\u0000\u0000\u0000\u0000\u0000\u0000\u0000\u0000\u0000\u0000\u0000\u0000\u0000\u0000\u0000\u0000\u0000\u0000\u0000\u0000\u0000\u0000\u0000\u0000\u0000\u0000\u0000\u0000\u0000\u0000\u0000\u0000\u0000\u0000\u0000\u0000\u0000\u0000\u0000\u0000\u0000\u0000\u0000\u0000\u0000\u0000\u0000\u0000\u0000\u0000\u0000\u0000\u0000\u0000\u0000\u0000\u0000\u0000\u0000\u0000\u0000\u0000\u0000\u0000\u0000\u0000\u0000\u0000\u0000\u0000\u0000\u0000\u0000\u0000\u0000\u0000\u0000\u0000\u0000\u0000\u0000\u0000\u0000\u0000\u0000\u0000\u0000\u0000\u0000\u0000\u0000\u0000\u0000\u0000\u0000\u0000\u0000\u0000\u0000\u0000": 5649,
      "caused": 5650,
      "gain": 5651,
      "lived": 5652,
      "##ga": 5653,
      "Thanks": 5654,
      "depend": 5655,
      "direction": 5656,
      "controvers": 5657,
      "driver": 5658,
      "Canadian": 5659,
      "Catholic": 5660,
      ".\u0000\u0000\u0000\u0000\u0000\u0000\u0000\u0000\u0000\u0000\u0000\u0000\u0000\u0000\u0000\u0000\u0000\u0000\u0000\u0000\u0000\u0000\u0000\u0000\u0000\u0000\u0000\u0000\u0000\u0000\u0000\u0000\u0000\u0000\u0000\u0000\u0000\u0000\u0000\u0000\u0000\u0000\u0000\u0000\u0000\u0000\u0000\u0000\u0000\u0000\u0000\u0000\u0000\u0000\u0000\u0000\u0000\u0000\u0000\u0000\u0000\u0000\u0000\u0000": 5661,
      "Bet": 5662,
      "Imp": 5663,
      "harm": 5664,
      "que": 5665,
      "##pri": 5666,
      "##acing": 5667,
      "##adium": 5668,
      "##imb": 5669,
      "##andom": 5670,
      "contain": 5671,
      "skin": 5672,
      "##ipped": 5673,
      "Secret": 5674,
      "dangerous": 5675,
      "independent": 5676,
      "Ver": 5677,
      "ran": 5678,
      "##6f": 5679,
      "##\u0000\u0000\u0000\u0000\u0000\u0000": 5680,
      "##igration": 5681,
      "comfort": 5682,
      "weight": 5683,
      "worse": 5684,
      "appl": 5685,
      "Chron": 5686,
      "England": 5687,
      "Ev": 5688,
      "Jes": 5689,
      "bond": 5690,
      "sun": 5691,
      "##ota": 5692,
      "consequ": 5693,
      "##ulf": 5694,
      "##abb": 5695,
      "showing": 5696,
      "owners": 5697,
      "selling": 5698,
      "Sanders": 5699,
      "99": 5700,
      "IT": 5701,
      "Wil": 5702,
      "##ca": 5703,
      "##atically": 5704,
      "worst": 5705,
      "decade": 5706,
      "provides": 5707,
      "issued": 5708,
      "interested": 5709,
      "internet": 5710,
      ".\u0000\u0000\u0000\u0000\u0000\u0000\u0000\u0000\u0000\u0000\u0000\u0000\u0000\u0000\u0000\u0000\u0000\u0000\u0000\u0000\u0000\u0000\u0000\u0000\u0000\u0000\u0000\u0000\u0000\u0000\u0000\u0000\u0000\u0000\u0000\u0000\u0000\u0000\u0000\u0000\u0000\u0000\u0000\u0000\u0000\u0000\u0000\u0000\u0000\u0000\u0000\u0000\u0000\u0000\u0000\u0000\u0000\u0000\u0000\u0000\u0000\u0000\u0000\u0000\u0000\u0000\u0000\u0000\u0000\u0000\u0000\u0000\u0000\u0000\u0000\u0000\u0000\u0000\u0000\u0000\u0000\u0000\u0000\u0000\u0000\u0000\u0000\u0000\u0000\u0000\u0000\u0000\u0000\u0000\u0000\u0000\u0000\u0000\u0000\u0000\u0000\u0000\u0000\u0000\u0000\u0000\u0000\u0000\u0000\u0000\u0000\u0000\u0000\u0000\u0000\u0000\u0000\u0000\u0000\u0000\u0000\u0000\u0000\u0000\u0000\u0000\u0000\u0000\u0000\u0000\u0000\u0000\u0000\u0000\u0000\u0000\u0000\u0000\u0000\u0000\u0000\u0000\u0000\u0000\u0000\u0000\u0000\u0000\u0000\u0000\u0000\u0000\u0000\u0000\u0000\u0000\u0000\u0000\u0000\u0000\u0000\u0000\u0000\u0000\u0000\u0000\u0000\u0000\u0000\u0000\u0000\u0000\u0000\u0000\u0000\u0000\u0000\u0000\u0000\u0000\u0000\u0000\u0000\u0000\u0000\u0000\u0000\u0000\u0000\u0000\u0000\u0000\u0000\u0000\u0000\u0000\u0000\u0000\u0000\u0000\u0000\u0000\u0000\u0000\u0000\u0000\u0000\u0000\u0000\u0000\u0000\u0000\u0000\u0000\u0000\u0000\u0000\u0000\u0000\u0000\u0000\u0000\u0000\u0000\u0000\u0000\u0000\u0000\u0000\u0000\u0000\u0000\u0000\u0000\u0000\u0000\u0000\u0000\u0000\u0000\u0000\u0000\u0000\u0000\u0000\u0000\u0000\u0000\u0000\u0000\u0000\u0000\u0000\u0000\u0000\u0000\u0000\u0000\u0000\u0000\u0000\u0000\u0000\u0000\u0000\u0000\u0000\u0000\u0000\u0000\u0000\u0000\u0000\u0000\u0000\u0000\u0000\u0000\u0000\u0000\u0000\u0000\u0000\u0000\u0000\u0000\u0000\u0000\u0000\u0000\u0000\u0000\u0000\u0000\u0000\u0000\u0000\u0000\u0000\u0000\u0000\u0000\u0000\u0000\u0000\u0000\u0000\u0000\u0000\u0000\u0000\u0000\u0000\u0000\u0000\u0000\u0000\u0000\u0000\u0000\u0000\u0000\u0000\u0000\u0000\u0000\u0000\u0000\u0000\u0000\u0000\u0000\u0000\u0000\u0000\u0000\u0000\u0000\u0000\u0000\u0000\u0000\u0000\u0000\u0000\u0000\u0000\u0000\u0000\u0000\u0000\u0000\u0000\u0000\u0000\u0000\u0000\u0000\u0000\u0000\u0000\u0000\u0000\u0000\u0000\u0000\u0000\u0000\u0000\u0000\u0000\u0000\u0000\u0000\u0000\u0000\u0000\u0000\u0000\u0000\u0000\u0000\u0000\u0000\u0000\u0000\u0000\u0000\u0000\u0000\u0000\u0000\u0000\u0000\u0000\u0000\u0000\u0000\u0000\u0000\u0000\u0000\u0000\u0000\u0000\u0000\u0000\u0000\u0000\u0000\u0000\u0000\u0000\u0000\u0000\u0000\u0000\u0000\u0000\u0000\u0000\u0000\u0000\u0000\u0000\u0000\u0000\u0000\u0000\u0000\u0000\u0000\u0000\u0000\u0000\u0000\u0000\u0000\u0000\u0000\u0000\u0000\u0000\u0000\u0000\u0000\u0000\u0000": 5711,
      "negative": 5712,
      "Roberts": 5713,
      "exchange": 5714,
      "FBI": 5715,
      "Group": 5716,
      "trib": 5717,
      "##43": 5718,
      "##OW": 5719,
      "##CC": 5720,
      "##pper": 5721,
      "Inter": 5722,
      "believes": 5723,
      "electric": 5724,
      "status": 5725,
      "victory": 5726,
      "watching": 5727,
      "Tim": 5728,
      "Wr": 5729,
      "Where": 5730,
      "nor": 5731,
      "##za": 5732,
      "##odes": 5733,
      "shut": 5734,
      "unit": 5735,
      "##igned": 5736,
      "generation": 5737,
      "restrict": 5738,
      "raise": 5739,
      "leaves": 5740,
      "Ukrain": 5741,
      "##AP": 5742,
      "##anda": 5743,
      "committee": 5744,
      "judge": 5745,
      "establish": 5746,
      "reduce": 5747,
      "Ryan": 5748,
      "Jim": 5749,
      "ut": 5750,
      "##09": 5751,
      "meat": 5752,
      "##soft": 5753,
      "recover": 5754,
      "smaller": 5755,
      "##itutional": 5756,
      "Mer": 5757,
      "onto": 5758,
      "2000": 5759,
      "neighborhood": 5760,
      "faith": 5761,
      "##mar": 5762,
      "##\u0000\u0000\u0000\u0000\u0000": 5763,
      "##izes": 5764,
      "newsp": 5765,
      "mostly": 5766,
      "Const": 5767,
      "proposed": 5768,
      "mechan": 5769,
      "##bd": 5770,
      "##ien": 5771,
      "##uct": 5772,
      "##urd": 5773,
      "##ategy": 5774,
      "sea": 5775,
      "##orthern": 5776,
      "unlike": 5777,
      "army": 5778,
      "##awn": 5779,
      "finding": 5780,
      "tells": 5781,
      "pattern": 5782,
      "entirely": 5783,
      "purpose": 5784,
      "Mary": 5785,
      "sch": 5786,
      "tast": 5787,
      "##gen": 5788,
      "##eline": 5789,
      "##ortion": 5790,
      "weekend": 5791,
      "Enter": 5792,
      "strik": 5793,
      "influence": 5794,
      "Microsoft": 5795,
      "55": 5796,
      "CN": 5797,
      "Det": 5798,
      "Out": 5799,
      "fal": 5800,
      "##UT": 5801,
      "##IG": 5802,
      "##inner": 5803,
      "Leban": 5804,
      "##phone": 5805,
      "suggested": 5806,
      "Mexico": 5807,
      "Jones": 5808,
      "Ok": 5809,
      "WE": 5810,
      "nine": 5811,
      "##ev": 5812,
      "##vis": 5813,
      "##ams": 5814,
      "spring": 5815,
      "dism": 5816,
      "attend": 5817,
      "##\u0000\u0000\u0000\u0000\u0000\u0000\u0000\u0000\u0000\u0000\u0000\u0000\u0000\u0000\u0000\u0000\u0000\u0000\u0000\u0000\u0000\u0000\u0000\u0000\u0000\u0000\u0000\u0000\u0000\u0000\u0000\u0000\u0000\u0000\u0000\u0000\u0000\u0000\u0000\u0000\u0000\u0000\u0000\u0000\u0000\u0000\u0000\u0000\u0000\u0000\u0000\u0000\u0000\u0000\u0000\u0000\u0000\u0000\u0000\u0000\u0000\u0000\u0000\u0000\u0000\u0000\u0000\u0000\u0000\u0000\u0000\u0000\u0000\u0000\u0000\u0000\u0000\u0000\u0000\u0000\u0000\u0000\u0000\u0000\u0000\u0000\u0000\u0000\u0000\u0000\u0000\u0000\u0000\u0000\u0000\u0000\u0000\u0000\u0000\u0000\u0000\u0000\u0000\u0000\u0000\u0000\u0000\u0000\u0000\u0000\u0000\u0000\u0000\u0000\u0000\u0000\u0000\u0000\u0000\u0000\u0000\u0000\u0000\u0000\u0000\u0000\u0000\u0000\u0000\u0000\u0000\u0000\u0000\u0000\u0000\u0000\u0000\u0000\u0000\u0000\u0000\u0000\u0000\u0000\u0000\u0000\u0000\u0000\u0000\u0000\u0000\u0000\u0000\u0000\u0000\u0000\u0000\u0000\u0000\u0000\u0000\u0000\u0000\u0000\u0000\u0000\u0000\u0000\u0000\u0000\u0000\u0000\u0000\u0000\u0000\u0000\u0000\u0000\u0000\u0000\u0000\u0000\u0000\u0000\u0000\u0000\u0000\u0000\u0000\u0000\u0000\u0000\u0000\u0000\u0000\u0000\u0000\u0000\u0000\u0000\u0000\u0000\u0000\u0000\u0000\u0000\u0000\u0000\u0000\u0000\u0000\u0000\u0000\u0000\u0000\u0000\u0000\u0000\u0000\u0000\u0000\u0000\u0000\u0000\u0000\u0000\u0000\u0000\u0000\u0000\u0000\u0000\u0000\u0000\u0000\u0000\u0000\u0000\u0000\u0000\u0000\u0000\u0000\u0000\u0000\u0000\u0000\u0000\u0000\u0000\u0000\u0000\u0000\u0000\u0000\u0000\u0000\u0000\u0000\u0000\u0000\u0000\u0000\u0000\u0000\u0000\u0000\u0000\u0000\u0000\u0000\u0000\u0000\u0000\u0000\u0000\u0000\u0000\u0000\u0000\u0000\u0000\u0000\u0000\u0000\u0000\u0000\u0000\u0000\u0000\u0000\u0000\u0000\u0000\u0000\u0000\u0000\u0000\u0000\u0000\u0000\u0000\u0000\u0000\u0000\u0000\u0000\u0000\u0000\u0000\u0000\u0000\u0000\u0000\u0000\u0000\u0000\u0000\u0000\u0000": 5818,
      "appropri": 5819,
      "double": 5820,
      "Robert": 5821,
      "mentioned": 5822,
      "Jose": 5823,
      "##ih": 5824,
      "##hol": 5825,
      "##iders": 5826,
      "##ags": 5827,
      "unless": 5828,
      "schem": 5829,
      "phil": 5830,
      "owner": 5831,
      "brew": 5832,
      "injury": 5833,
      "audience": 5834,
      "Goldman": 5835,
      "structure": 5836,
      "daughter": 5837,
      "##works": 5838,
      "##ica": 5839,
      "##aks": 5840,
      "##usive": 5841,
      "spl": 5842,
      "served": 5843,
      "annual": 5844,
      "views": 5845,
      "insurance": 5846,
      "vulner": 5847,
      "Bre": 5848,
      "Dire": 5849,
      "Public": 5850,
      "Sur": 5851,
      "lines": 5852,
      "ton": 5853,
      "##gender": 5854,
      "##itation": 5855,
      "##aly": 5856,
      "asp": 5857,
      "##ears": 5858,
      "older": 5859,
      "speaking": 5860,
      "trip": 5861,
      "established": 5862,
      "GOP": 5863,
      "conservative": 5864,
      "##ampionship": 5865,
      "Wall": 5866,
      "aware": 5867,
      "##iated": 5868,
      "##06": 5869,
      "##outs": 5870,
      "##rif": 5871,
      "offensive": 5872,
      "thank": 5873,
      "coal": 5874,
      "##apped": 5875,
      "largely": 5876,
      "occup": 5877,
      "##coming": 5878,
      "legislation": 5879,
      "repeated": 5880,
      "spirit": 5881,
      "Hol": 5882,
      "Izz": 5883,
      "cas": 5884,
      "cup": 5885,
      "kid": 5886,
      "##iest": 5887,
      "##cd": 5888,
      "setting": 5889,
      "supported": 5890,
      "existing": 5891,
      "!\"": 5892,
      "Both": 5893,
      "Dani": 5894,
      "Hit": 5895,
      "MM": 5896,
      "gra": 5897,
      "##ios": 5898,
      "register": 5899,
      "explain": 5900,
      "Britain": 5901,
      "Office": 5902,
      "application": 5903,
      "CD": 5904,
      "CEO": 5905,
      "Peter": 5906,
      "south": 5907,
      "##know": 5908,
      "##SA": 5909,
      "##isf": 5910,
      "stick": 5911,
      "trail": 5912,
      "spoke": 5913,
      "strength": 5914,
      "markets": 5915,
      "requires": 5916,
      "Prot": 5917,
      "doubt": 5918,
      "floor": 5919,
      "Angeles": 5920,
      "Bob": 5921,
      "##uries": 5922,
      "##iling": 5923,
      "##osure": 5924,
      "##oston": 5925,
      "otherwise": 5926,
      "download": 5927,
      "Blue": 5928,
      "concerned": 5929,
      "employees": 5930,
      "joined": 5931,
      "##----------------": 5932,
      "victims": 5933,
      "Lu": 5934,
      "Though": 5935,
      "coverage": 5936,
      "changing": 5937,
      "easier": 5938,
      "definitely": 5939,
      "Windows": 5940,
      "Back": 5941,
      "core": 5942,
      "samp": 5943,
      "tim": 5944,
      "##la": 5945,
      "##UR": 5946,
      "##inn": 5947,
      "##asy": 5948,
      "react": 5949,
      "##ading": 5950,
      "corner": 5951,
      "turns": 5952,
      "testing": 5953,
      "killing": 5954,
      "spokesman": 5955,
      "Rain": 5956,
      "bab": 5957,
      "mental": 5958,
      "##EM": 5959,
      "fresh": 5960,
      "dog": 5961,
      "partners": 5962,
      "cold": 5963,
      "command": 5964,
      "2005": 5965,
      "strategy": 5966,
      "deploy": 5967,
      "operation": 5968,
      "patients": 5969,
      "measures": 5970,
      "please": 5971,
      "behavior": 5972,
      "slightly": 5973,
      "Rem": 5974,
      "Sal": 5975,
      "##rate": 5976,
      "##ania": 5977,
      "plus": 5978,
      "activities": 5979,
      "cuts": 5980,
      "participants": 5981,
      "scientists": 5982,
      "etc": 5983,
      "corporate": 5984,
      "Bush": 5985,
      "Kar": 5986,
      "Mos": 5987,
      "bul": 5988,
      "fit": 5989,
      "pet": 5990,
      "##bour": 5991,
      "##2d": 5992,
      "##ste": 5993,
      "##ette": 5994,
      "##ocol": 5995,
      "recording": 5996,
      "useful": 5997,
      "conclud": 5998,
      "fellow": 5999,
      "innov": 6000,
      "36": 6001,
      "Ari": 6002,
      "Found": 6003,
      "Jon": 6004,
      "Pre": 6005,
      "Ve": 6006,
      "##a4": 6007,
      "##icated": 6008,
      "##iger": 6009,
      "Before": 6010,
      "driving": 6011,
      "internal": 6012,
      "temperature": 6013,
      "Richard": 6014,
      "conflict": 6015,
      "Chronicle": 6016,
      "Cup": 6017,
      "Pac": 6018,
      "load": 6019,
      "##rative": 6020,
      "train": 6021,
      "therefore": 6022,
      "Health": 6023,
      "writes": 6024,
      "afford": 6025,
      "Johnson": 6026,
      "homes": 6027,
      "consumers": 6028,
      "##igrants": 6029,
      "obvious": 6030,
      "husband": 6031,
      "Whe": 6032,
      "vill": 6033,
      "##IM": 6034,
      "##abin": 6035,
      "compar": 6036,
      "graph": 6037,
      "##resp": 6038,
      "defensive": 6039,
      "editor": 6040,
      "MSU": 6041,
      "traffic": 6042,
      "BWC": 6043,
      "Boston": 6044,
      "La": 6045,
      "Time": 6046,
      "##do": 6047,
      "##che": 6048,
      "##iner": 6049,
      "plays": 6050,
      "##apter": 6051,
      "unp": 6052,
      "##avy": 6053,
      "acknow": 6054,
      "taxes": 6055,
      "debt": 6056,
      "Food": 6057,
      "Ro": 6058,
      "catch": 6059,
      "##lig": 6060,
      "##han": 6061,
      "##GB": 6062,
      "##oking": 6063,
      "presence": 6064,
      "##onto": 6065,
      "instance": 6066,
      "discussion": 6067,
      "Charl": 6068,
      "challenges": 6069,
      "housing": 6070,
      "Virginia": 6071,
      "Free": 6072,
      "Hall": 6073,
      "burn": 6074,
      "max": 6075,
      "sem": 6076,
      "##more": 6077,
      "##pping": 6078,
      "##iful": 6079,
      "expans": 6080,
      "syn": 6081,
      "presented": 6082,
      "earth": 6083,
      "planned": 6084,
      "stopped": 6085,
      "Offic": 6086,
      "Social": 6087,
      "Linux": 6088,
      "gar": 6089,
      "##1d": 6090,
      "##omas": 6091,
      "stated": 6092,
      "00000007": 6093,
      "##rial": 6094,
      "##andon": 6095,
      "sequ": 6096,
      "2018": 6097,
      "fired": 6098,
      "remind": 6099,
      "Army": 6100,
      "Spe": 6101,
      "surface": 6102,
      "bigger": 6103,
      "Key": 6104,
      "focused": 6105,
      "Paris": 6106,
      "expressed": 6107,
      "radio": 6108,
      "imagine": 6109,
      "Carolina": 6110,
      "39": 6111,
      "Road": 6112,
      "Watch": 6113,
      "categ": 6114,
      "fuel": 6115,
      "partner": 6116,
      "recall": 6117,
      "crack": 6118,
      "assess": 6119,
      "strateg": 6120,
      "transfer": 6121,
      "seconds": 6122,
      "failure": 6123,
      "##isco": 6124,
      ",’": 6125,
      "losing": 6126,
      "##e0": 6127,
      "##amb": 6128,
      "tea": 6129,
      "active": 6130,
      "background": 6131,
      "##elling": 6132,
      "transgender": 6133,
      "memory": 6134,
      "privacy": 6135,
      "circum": 6136,
      "waiting": 6137,
      "Medic": 6138,
      "Jews": 6139,
      "balance": 6140,
      "Association": 6141,
      "Pok": 6142,
      "Right": 6143,
      "tough": 6144,
      "##wide": 6145,
      "##abase": 6146,
      "placed": 6147,
      "developers": 6148,
      "elected": 6149,
      "democracy": 6150,
      "Prime": 6151,
      "##scrib": 6152,
      "emergency": 6153,
      "Syrian": 6154,
      "girls": 6155,
      "Toronto": 6156,
      "42": 6157,
      "Gar": 6158,
      "Journal": 6159,
      "],": 6160,
      "banks": 6161,
      "mere": 6162,
      "north": 6163,
      "##orrow": 6164,
      "exerc": 6165,
      "hasn": 6166,
      "interact": 6167,
      "##mann": 6168,
      "equal": 6169,
      "Institute": 6170,
      "soldiers": 6171,
      "absolutely": 6172,
      "politicians": 6173,
      "34": 6174,
      "hits": 6175,
      "vs": 6176,
      "##ext": 6177,
      "##time": 6178,
      "##IP": 6179,
      "##omer": 6180,
      "weather": 6181,
      "expensive": 6182,
      "##ogue": 6183,
      "thanks": 6184,
      "justice": 6185,
      "insist": 6186,
      "equip": 6187,
      "charged": 6188,
      "methods": 6189,
      "false": 6190,
      "Yet": 6191,
      "wing": 6192,
      "##night": 6193,
      "##EL": 6194,
      "##terday": 6195,
      "sust": 6196,
      "plant": 6197,
      "twice": 6198,
      "##azine": 6199,
      "##ucky": 6200,
      "feels": 6201,
      "managed": 6202,
      "##____": 6203,
      "troops": 6204,
      "Fox": 6205,
      "fol": 6206,
      "mal": 6207,
      "tight": 6208,
      "##ario": 6209,
      "suit": 6210,
      "##enses": 6211,
      "signs": 6212,
      "paying": 6213,
      "adjust": 6214,
      "Izzo": 6215,
      "Each": 6216,
      "Look": 6217,
      "Rock": 6218,
      "Swe": 6219,
      "element": 6220,
      "veter": 6221,
      "##b4": 6222,
      "youth": 6223,
      "##ifying": 6224,
      "advance": 6225,
      "skills": 6226,
      "Mean": 6227,
      "Source": 6228,
      "Ken": 6229,
      "Pet": 6230,
      "bomb": 6231,
      "era": 6232,
      "##semb": 6233,
      "stock": 6234,
      "clot": 6235,
      "Chief": 6236,
      "##rible": 6237,
      "medic": 6238,
      "capac": 6239,
      "district": 6240,
      "healthy": 6241,
      "entertain": 6242,
      "professor": 6243,
      "recommend": 6244,
      "iPh": 6245,
      "Louis": 6246,
      "Hitler": 6247,
      "Saud": 6248,
      "lob": 6249,
      "random": 6250,
      "wish": 6251,
      "##2c": 6252,
      "##ini": 6253,
      "tow": 6254,
      "##asts": 6255,
      "stars": 6256,
      "shock": 6257,
      "Ant": 6258,
      "THAT": 6259,
      "suggests": 6260,
      "Ruby": 6261,
      "49": 6262,
      "BBC": 6263,
      "Tra": 6264,
      "##5c": 6265,
      "##38": 6266,
      "##onald": 6267,
      "forg": 6268,
      "##cel": 6269,
      "click": 6270,
      "##ruption": 6271,
      "interp": 6272,
      "earn": 6273,
      "guarant": 6274,
      "marriage": 6275,
      "familiar": 6276,
      "closer": 6277,
      "apparently": 6278,
      "tweet": 6279,
      "Four": 6280,
      "Somet": 6281,
      "Tre": 6282,
      "##makers": 6283,
      "Prof": 6284,
      "keeping": 6285,
      "starts": 6286,
      "figures": 6287,
      "Media": 6288,
      "steps": 6289,
      "motiv": 6290,
      "ultimately": 6291,
      "Camp": 6292,
      "fif": 6293,
      "rough": 6294,
      "teen": 6295,
      "##issions": 6296,
      "Holl": 6297,
      "##etic": 6298,
      "suc": 6299,
      "resist": 6300,
      "remove": 6301,
      "removed": 6302,
      "experts": 6303,
      "boost": 6304,
      "Exp": 6305,
      "scientific": 6306,
      "window": 6307,
      "occurred": 6308,
      "75": 6309,
      "Put": 6310,
      "##b0": 6311,
      "##ka": 6312,
      "##has": 6313,
      "##==": 6314,
      "##isters": 6315,
      "##estic": 6316,
      "weak": 6317,
      "prohib": 6318,
      "recorded": 6319,
      "About": 6320,
      "specifically": 6321,
      "surprise": 6322,
      "determined": 6323,
      "Fire": 6324,
      "Techn": 6325,
      "rat": 6326,
      "##dit": 6327,
      "##empl": 6328,
      "spons": 6329,
      "univers": 6330,
      "Columb": 6331,
      "sounds": 6332,
      "strike": 6333,
      "##going": 6334,
      "Ma": 6335,
      "##rim": 6336,
      "##house": 6337,
      "##odies": 6338,
      "mode": 6339,
      "standards": 6340,
      "arrived": 6341,
      "Intel": 6342,
      "conversation": 6343,
      "bound": 6344,
      "odd": 6345,
      "task": 6346,
      "##vant": 6347,
      "##isation": 6348,
      "##apers": 6349,
      "union": 6350,
      "explos": 6351,
      "interests": 6352,
      "happening": 6353,
      "funds": 6354,
      "**": 6355,
      "Nov": 6356,
      "Pak": 6357,
      "Sign": 6358,
      "iron": 6359,
      "##oz": 6360,
      "##roid": 6361,
      "##ula": 6362,
      "Web": 6363,
      "leads": 6364,
      "guess": 6365,
      "##lands": 6366,
      "dram": 6367,
      "appearance": 6368,
      "sites": 6369,
      "##idden": 6370,
      "convention": 6371,
      "degree": 6372,
      "Ac": 6373,
      "Dan": 6374,
      "ON": 6375,
      "Wars": 6376,
      "##oman": 6377,
      "##olf": 6378,
      "Thomas": 6379,
      "##avour": 6380,
      "acad": 6381,
      "founder": 6382,
      "Central": 6383,
      "revolution": 6384,
      "prepared": 6385,
      "argument": 6386,
      "Poké": 6387,
      "Du": 6388,
      "Dar": 6389,
      "Long": 6390,
      "Life": 6391,
      "wer": 6392,
      "##68": 6393,
      "##icious": 6394,
      "##stream": 6395,
      "##istics": 6396,
      "university": 6397,
      "##icken": 6398,
      "Only": 6399,
      "models": 6400,
      "crew": 6401,
      "##ipping": 6402,
      "seeking": 6403,
      "Robertson": 6404,
      "philos": 6405,
      ",'": 6406,
      "Down": 6407,
      "##bre": 6408,
      "##lor": 6409,
      "##18": 6410,
      "conce": 6411,
      "implic": 6412,
      "commission": 6413,
      "finished": 6414,
      "##ologies": 6415,
      "guard": 6416,
      "Share": 6417,
      "Science": 6418,
      "argued": 6419,
      "vehicle": 6420,
      "Francisco": 6421,
      "organizations": 6422,
      "400": 6423,
      "Lib": 6424,
      "Work": 6425,
      "master": 6426,
      "none": 6427,
      "##cher": 6428,
      "##vention": 6429,
      "##roc": 6430,
      "anc": 6431,
      "##ription": 6432,
      "indeed": 6433,
      "flight": 6434,
      "explains": 6435,
      "Research": 6436,
      "determine": 6437,
      "equipment": 6438,
      "Emp": 6439,
      "NH": 6440,
      "rid": 6441,
      "##pm": 6442,
      "herself": 6443,
      "accounts": 6444,
      "finish": 6445,
      "transport": 6446,
      "fourth": 6447,
      "##ERS": 6448,
      "profit": 6449,
      "##!!!!": 6450,
      "experienced": 6451,
      "Mount": 6452,
      "Sk": 6453,
      "length": 6454,
      "sitting": 6455,
      "tack": 6456,
      "##mit": 6457,
      "##mark": 6458,
      "##48": 6459,
      "##ingly": 6460,
      "wear": 6461,
      "clock": 6462,
      "shel": 6463,
      "decisions": 6464,
      "owned": 6465,
      "##nergy": 6466,
      "signal": 6467,
      "encoun": 6468,
      "Wik": 6469,
      "mm": 6470,
      "##ooth": 6471,
      "##arr": 6472,
      "##oms": 6473,
      "##otic": 6474,
      "forms": 6475,
      "##imal": 6476,
      "spect": 6477,
      "##ointed": 6478,
      "committed": 6479,
      "Spart": 6480,
      "legit": 6481,
      "protection": 6482,
      "practices": 6483,
      "footage": 6484,
      "emotional": 6485,
      "dropped": 6486,
      "streets": 6487,
      "##gia": 6488,
      "##NC": 6489,
      "##esome": 6490,
      "##iser": 6491,
      "##lege": 6492,
      "##aded": 6493,
      "##tered": 6494,
      "##usal": 6495,
      "context": 6496,
      "belong": 6497,
      "column": 6498,
      "providing": 6499,
      "##ynam": 6500,
      "dollar": 6501,
      "weapon": 6502,
      "originally": 6503,
      "Afghanistan": 6504,
      "chemical": 6505,
      "Meanwhile": 6506,
      "Bur": 6507,
      "Bowl": 6508,
      "Hel": 6509,
      "##oe": 6510,
      "##uls": 6511,
      "sport": 6512,
      "overw": 6513,
      "underst": 6514,
      "supply": 6515,
      "species": 6516,
      "possibly": 6517,
      "##ATE": 6518,
      "variety": 6519,
      "Perhaps": 6520,
      "update": 6521,
      "regarding": 6522,
      "Pokémon": 6523,
      "Book": 6524,
      "Sup": 6525,
      "vision": 6526,
      "##nel": 6527,
      "##ishes": 6528,
      "##agues": 6529,
      "##osen": 6530,
      "quant": 6531,
      "writer": 6532,
      "depart": 6533,
      "honest": 6534,
      "sweet": 6535,
      "AC": 6536,
      "CB": 6537,
      "ES": 6538,
      "Max": 6539,
      "SH": 6540,
      "sides": 6541,
      "tort": 6542,
      "##f7": 6543,
      "##itude": 6544,
      "##lets": 6545,
      "##verse": 6546,
      "ath": 6547,
      "##rier": 6548,
      "worry": 6549,
      "##anging": 6550,
      "remark": 6551,
      "remained": 6552,
      "##ucker": 6553,
      "Images": 6554,
      "attempts": 6555,
      "religion": 6556,
      "Conserv": 6557,
      "Rod": 6558,
      "Sing": 6559,
      "filled": 6560,
      "pair": 6561,
      "##iations": 6562,
      "##craft": 6563,
      "##eder": 6564,
      "##duction": 6565,
      "Spec": 6566,
      "##azon": 6567,
      "allowing": 6568,
      "refused": 6569,
      "##ructure": 6570,
      "1990": 6571,
      "council": 6572,
      "staying": 6573,
      "Team": 6574,
      "Sov": 6575,
      "Vide": 6576,
      "ec": 6577,
      "giant": 6578,
      "vir": 6579,
      "yards": 6580,
      "##nown": 6581,
      "##esters": 6582,
      "##agement": 6583,
      "chann": 6584,
      "prime": 6585,
      "Stra": 6586,
      "apply": 6587,
      "server": 6588,
      "carried": 6589,
      "developing": 6590,
      "affect": 6591,
      "ruling": 6592,
      "bringing": 6593,
      "responsibility": 6594,
      "candidates": 6595,
      "increasingly": 6596,
      "African": 6597,
      "Mem": 6598,
      "dim": 6599,
      "thinks": 6600,
      "##etary": 6601,
      "##emic": 6602,
      "##uled": 6603,
      "tele": 6604,
      "Andrew": 6605,
      "##issa": 6606,
      "instit": 6607,
      "facing": 6608,
      "solid": 6609,
      "voting": 6610,
      "pieces": 6611,
      "Den": 6612,
      "Fer": 6613,
      "Sher": 6614,
      "##mas": 6615,
      "##eck": 6616,
      "stress": 6617,
      "agent": 6618,
      "reporters": 6619,
      "helps": 6620,
      "moments": 6621,
      "surprising": 6622,
      "experiences": 6623,
      "Korea": 6624,
      "Martin": 6625,
      "Palestinian": 6626,
      ");": 6627,
      "47": 6628,
      "Bern": 6629,
      "Hou": 6630,
      "Middle": 6631,
      "Note": 6632,
      "Que": 6633,
      "bought": 6634,
      "fly": 6635,
      "pu": 6636,
      "##05": 6637,
      "##uana": 6638,
      "##arks": 6639,
      "##ader": 6640,
      "##cean": 6641,
      "prove": 6642,
      "frust": 6643,
      "sharing": 6644,
      "client": 6645,
      "score": 6646,
      "##aves": 6647,
      "##ancing": 6648,
      "##\u0000\u0000\u0000\u0000\u0000\u0000\u0000\u0000\u0000\u0000\u0000\u0000\u0000\u0000\u0000\u0000\u0000\u0000\u0000\u0000\u0000\u0000\u0000\u0000\u0000\u0000\u0000\u0000\u0000\u0000\u0000\u0000\u0000\u0000\u0000\u0000\u0000\u0000\u0000\u0000\u0000\u0000\u0000\u0000\u0000\u0000\u0000\u0000\u0000\u0000\u0000\u0000\u0000\u0000\u0000\u0000\u0000\u0000\u0000\u0000\u0000\u0000\u0000\u0000\u0000\u0000\u0000\u0000\u0000\u0000\u0000\u0000\u0000\u0000\u0000\u0000\u0000\u0000\u0000\u0000\u0000\u0000\u0000\u0000\u0000\u0000\u0000\u0000\u0000\u0000\u0000\u0000\u0000\u0000\u0000\u0000\u0000\u0000\u0000\u0000\u0000\u0000\u0000\u0000\u0000\u0000\u0000\u0000\u0000\u0000\u0000\u0000\u0000\u0000\u0000\u0000\u0000\u0000\u0000\u0000\u0000\u0000\u0000\u0000\u0000\u0000\u0000\u0000\u0000\u0000\u0000\u0000\u0000\u0000\u0000\u0000\u0000\u0000\u0000\u0000\u0000\u0000\u0000\u0000\u0000\u0000\u0000\u0000\u0000\u0000\u0000\u0000\u0000\u0000\u0000\u0000\u0000\u0000\u0000\u0000\u0000\u0000\u0000\u0000\u0000\u0000\u0000\u0000\u0000\u0000\u0000\u0000\u0000\u0000\u0000\u0000\u0000\u0000\u0000\u0000\u0000\u0000\u0000\u0000\u0000\u0000\u0000\u0000\u0000\u0000\u0000\u0000\u0000\u0000\u0000\u0000\u0000\u0000\u0000\u0000\u0000\u0000\u0000\u0000\u0000\u0000\u0000\u0000\u0000\u0000\u0000\u0000\u0000\u0000\u0000\u0000\u0000\u0000\u0000\u0000\u0000\u0000\u0000\u0000\u0000\u0000\u0000\u0000\u0000\u0000\u0000\u0000\u0000\u0000\u0000\u0000\u0000\u0000\u0000\u0000\u0000\u0000\u0000\u0000\u0000\u0000\u0000\u0000\u0000\u0000\u0000\u0000\u0000\u0000\u0000\u0000\u0000\u0000\u0000\u0000\u0000\u0000\u0000\u0000\u0000\u0000\u0000\u0000\u0000\u0000\u0000\u0000\u0000\u0000\u0000\u0000\u0000\u0000\u0000\u0000\u0000\u0000\u0000\u0000\u0000\u0000\u0000\u0000\u0000\u0000\u0000\u0000\u0000\u0000\u0000\u0000\u0000\u0000\u0000\u0000\u0000\u0000\u0000\u0000\u0000\u0000\u0000\u0000\u0000\u0000\u0000\u0000\u0000\u0000\u0000\u0000\u0000\u0000\u0000\u0000\u0000\u0000\u0000\u0000\u0000\u0000\u0000\u0000\u0000\u0000\u0000\u0000\u0000\u0000\u0000\u0000\u0000\u0000\u0000\u0000\u0000\u0000\u0000\u0000\u0000\u0000\u0000\u0000\u0000\u0000\u0000\u0000\u0000\u0000\u0000\u0000\u0000\u0000\u0000\u0000\u0000\u0000\u0000\u0000\u0000\u0000\u0000\u0000\u0000\u0000\u0000\u0000\u0000\u0000\u0000\u0000\u0000\u0000\u0000\u0000\u0000\u0000\u0000\u0000\u0000\u0000\u0000\u0000\u0000\u0000\u0000\u0000\u0000\u0000\u0000\u0000\u0000\u0000\u0000\u0000\u0000\u0000\u0000\u0000\u0000\u0000\u0000\u0000\u0000\u0000\u0000\u0000\u0000\u0000\u0000\u0000\u0000\u0000\u0000\u0000\u0000\u0000\u0000\u0000\u0000\u0000\u0000\u0000\u0000\u0000\u0000\u0000\u0000\u0000\u0000\u0000\u0000\u0000\u0000\u0000\u0000\u0000\u0000\u0000\u0000\u0000\u0000\u0000\u0000\u0000\u0000\u0000\u0000\u0000\u0000\u0000\u0000\u0000\u0000\u0000\u0000\u0000\u0000\u0000\u0000\u0000\u0000\u0000\u0000\u0000\u0000\u0000\u0000\u0000\u0000\u0000\u0000\u0000\u0000\u0000\u0000\u0000\u0000\u0000\u0000\u0000\u0000\u0000\u0000\u0000\u0000\u0000\u0000\u0000\u0000\u0000\u0000\u0000\u0000\u0000\u0000\u0000\u0000\u0000\u0000\u0000\u0000\u0000\u0000\u0000\u0000\u0000": 6649,
      "keys": 6650,
      "territ": 6651,
      "returns": 6652,
      "collabor": 6653,
      "calc": 6654,
      "widely": 6655,
      "alternative": 6656,
      "Daniel": 6657,
      "circumst": 6658,
      "Federal": 6659,
      "fle": 6660,
      "##ey": 6661,
      "##e4": 6662,
      "00000002": 6663,
      "##ipl": 6664,
      "secure": 6665,
      "Unf": 6666,
      "helping": 6667,
      "parent": 6668,
      "famous": 6669,
      "explo": 6670,
      "planning": 6671,
      "talked": 6672,
      "positions": 6673,
      "businesses": 6674,
      "Maybe": 6675,
      "tradition": 6676,
      "##porary": 6677,
      "existence": 6678,
      "##ijuana": 6679,
      "restaurant": 6680,
      "Light": 6681,
      "##rick": 6682,
      "##ius": 6683,
      "##da": 6684,
      "##how": 6685,
      "##ocal": 6686,
      "chain": 6687,
      "complic": 6688,
      "apprec": 6689,
      "##ressive": 6690,
      "decide": 6691,
      "remaining": 6692,
      "files": 6693,
      "operating": 6694,
      "declared": 6695,
      "AD": 6696,
      "Jul": 6697,
      "##PS": 6698,
      "prosp": 6699,
      "sav": 6700,
      "offense": 6701,
      "offering": 6702,
      "deck": 6703,
      "evening": 6704,
      "thoughts": 6705,
      "copyright": 6706,
      "animal": 6707,
      "Japanese": 6708,
      "pulled": 6709,
      "relatively": 6710,
      "lawyer": 6711,
      "##respond": 6712,
      "Houston": 6713,
      "AL": 6714,
      "Cop": 6715,
      "Elect": 6716,
      "Far": 6717,
      "Gaz": 6718,
      "HT": 6719,
      "Mad": 6720,
      "Miss": 6721,
      "Nor": 6722,
      "Person": 6723,
      "Ret": 6724,
      "award": 6725,
      "god": 6726,
      "##03": 6727,
      "withd": 6728,
      "plenty": 6729,
      "intended": 6730,
      "seriously": 6731,
      "2003": 6732,
      "transl": 6733,
      "supporting": 6734,
      "profile": 6735,
      "Conn": 6736,
      "Color": 6737,
      "hopes": 6738,
      "combat": 6739,
      "apart": 6740,
      "covered": 6741,
      "boys": 6742,
      "satisf": 6743,
      "beautiful": 6744,
      "ML": 6745,
      "NOT": 6746,
      "hyp": 6747,
      "loved": 6748,
      "rain": 6749,
      "wood": 6750,
      "##6c": 6751,
      "##hi": 6752,
      "##).": 6753,
      "diss": 6754,
      "coff": 6755,
      "##oves": 6756,
      "Rev": 6757,
      "founded": 6758,
      "warned": 6759,
      "confidence": 6760,
      "humans": 6761,
      "Again": 6762,
      "denied": 6763,
      "volume": 6764,
      "treated": 6765,
      "Ohio": 6766,
      "sector": 6767,
      "Service": 6768,
      "capacity": 6769,
      "41": 6770,
      "59": 6771,
      "boss": 6772,
      "rot": 6773,
      "##RA": 6774,
      "##ção": 6775,
      "##uters": 6776,
      "00000004": 6777,
      "edge": 6778,
      "greatest": 6779,
      "possibility": 6780,
      "matters": 6781,
      "construction": 6782,
      "##dden": 6783,
      "Second": 6784,
      "caption": 6785,
      "estimated": 6786,
      "proposal": 6787,
      "expansion": 6788,
      "Top": 6789,
      "breat": 6790,
      "##gu": 6791,
      "##itar": 6792,
      "quiet": 6793,
      "elections": 6794,
      "infr": 6795,
      "tests": 6796,
      "listen": 6797,
      "identify": 6798,
      "votes": 6799,
      "Australian": 6800,
      "purchase": 6801,
      "controlled": 6802,
      "Jesus": 6803,
      "schol": 6804,
      "Ariz": 6805,
      "iPhone": 6806,
      "Soviet": 6807,
      "Id": 6808,
      "hun": 6809,
      "##rison": 6810,
      "##isher": 6811,
      "##ashed": 6812,
      "##olved": 6813,
      "proceed": 6814,
      "##away": 6815,
      "flow": 6816,
      "##ception": 6817,
      "protests": 6818,
      "currency": 6819,
      "Amazon": 6820,
      "database": 6821,
      "appropriate": 6822,
      "Supreme": 6823,
      "38": 6824,
      "Cle": 6825,
      "Dou": 6826,
      "fuck": 6827,
      "##6d": 6828,
      "##58": 6829,
      "##CH": 6830,
      "##oted": 6831,
      "##utors": 6832,
      "##adow": 6833,
      "disease": 6834,
      "grown": 6835,
      "##athan": 6836,
      "2001": 6837,
      "2004": 6838,
      "follows": 6839,
      "entry": 6840,
      "located": 6841,
      "authority": 6842,
      "College": 6843,
      "suspect": 6844,
      "predict": 6845,
      "cooking": 6846,
      "vehicles": 6847,
      "newspaper": 6848,
      "Fig": 6849,
      "Hen": 6850,
      "Ms": 6851,
      "Penn": 6852,
      "Vict": 6853,
      "hall": 6854,
      "sac": 6855,
      "turning": 6856,
      "##1c": 6857,
      "##lyn": 6858,
      "sudden": 6859,
      "seat": 6860,
      "neither": 6861,
      "unable": 6862,
      "buying": 6863,
      "instruct": 6864,
      "realize": 6865,
      "filed": 6866,
      "matches": 6867,
      "videos": 6868,
      "solar": 6869,
      "networks": 6870,
      "##intend": 6871,
      "significantly": 6872,
      "Disney": 6873,
      "behavi": 6874,
      "Secretary": 6875,
      "HA": 6876,
      "Sol": 6877,
      "bull": 6878,
      "libr": 6879,
      "##uate": 6880,
      "wearing": 6881,
      "excell": 6882,
      "##ourney": 6883,
      "##encing": 6884,
      "symp": 6885,
      "monitor": 6886,
      "heads": 6887,
      "affected": 6888,
      "songs": 6889,
      "Moore": 6890,
      "Melissa": 6891,
      "refugees": 6892,
      "dismiss": 6893,
      "Dal": 6894,
      "Lo": 6895,
      "laugh": 6896,
      "tech": 6897,
      "##tic": 6898,
      "##iy": 6899,
      "##fare": 6900,
      "##hat": 6901,
      "##erves": 6902,
      "plastic": 6903,
      "Three": 6904,
      "Head": 6905,
      "##aving": 6906,
      "accident": 6907,
      "serving": 6908,
      "Force": 6909,
      "completed": 6910,
      "broken": 6911,
      "##offs": 6912,
      "perspect": 6913,
      "Upd": 6914,
      "Daily": 6915,
      "Unfortunately": 6916,
      "Cru": 6917,
      "DE": 6918,
      "mail": 6919,
      "van": 6920,
      "zone": 6921,
      "##ils": 6922,
      "proced": 6923,
      "seasons": 6924,
      "Invest": 6925,
      "##izz": 6926,
      "consult": 6927,
      "discl": 6928,
      "Project": 6929,
      "driven": 6930,
      "Coach": 6931,
      "hurt": 6932,
      "rapid": 6933,
      "Saudi": 6934,
      "overwhel": 6935,
      "52": 6936,
      "Dark": 6937,
      "Fore": 6938,
      "Rad": 6939,
      "craz": 6940,
      "##town": 6941,
      "##mm": 6942,
      "##ket": 6943,
      "##kins": 6944,
      "##edia": 6945,
      "storm": 6946,
      "stret": 6947,
      "##irty": 6948,
      "##agan": 6949,
      "##udd": 6950,
      "aggress": 6951,
      "attorney": 6952,
      "##hens": 6953,
      "governments": 6954,
      "Class": 6955,
      "concl": 6956,
      "USA": 6957,
      "emphas": 6958,
      "cultural": 6959,
      "teachers": 6960,
      "begins": 6961,
      "trouble": 6962,
      "Buff": 6963,
      "Brett": 6964,
      "Its": 6965,
      "Mass": 6966,
      "hat": 6967,
      "pool": 6968,
      "##rig": 6969,
      "revenue": 6970,
      "neur": 6971,
      "manner": 6972,
      "Cho": 6973,
      "##well": 6974,
      "expert": 6975,
      "correspond": 6976,
      "factors": 6977,
      "payment": 6978,
      "examples": 6979,
      "Guard": 6980,
      "collection": 6981,
      "Rainbow": 6982,
      "48": 6983,
      "Gen": 6984,
      "sale": 6985,
      "##a5": 6986,
      "##mosp": 6987,
      "##oma": 6988,
      "##ilty": 6989,
      "##essions": 6990,
      "##ums": 6991,
      "plants": 6992,
      "cancer": 6993,
      "desire": 6994,
      "planet": 6995,
      "opposed": 6996,
      "effectively": 6997,
      "broke": 6998,
      "missing": 6999,
      "awesome": 7000,
      "Charles": 7001,
      "error": 7002,
      "fixed": 7003,
      "criticism": 7004,
      "yesterday": 7005,
      "##ez": 7006,
      "##eds": 7007,
      "##icing": 7008,
      "##enth": 7009,
      "reaction": 7010,
      "##igger": 7011,
      "doct": 7012,
      "enh": 7013,
      "script": 7014,
      "blow": 7015,
      "##nell": 7016,
      "Show": 7017,
      "warm": 7018,
      "delay": 7019,
      "environmental": 7020,
      "responded": 7021,
      "cells": 7022,
      "Dash": 7023,
      "ID": 7024,
      "Jord": 7025,
      "Never": 7026,
      "Wal": 7027,
      "pure": 7028,
      "sad": 7029,
      "##gas": 7030,
      "forth": 7031,
      "##ensions": 7032,
      "##anche": 7033,
      "faces": 7034,
      "involve": 7035,
      "picked": 7036,
      "##cohol": 7037,
      "Getty": 7038,
      "##iques": 7039,
      "##stein": 7040,
      "3D": 7041,
      "AS": 7042,
      "Boy": 7043,
      "Further": 7044,
      "Kat": 7045,
      "Tal": 7046,
      "bag": 7047,
      "fish": 7048,
      "flex": 7049,
      "grew": 7050,
      "##law": 7051,
      "##orage": 7052,
      "##ola": 7053,
      "##olph": 7054,
      "manip": 7055,
      "arms": 7056,
      "##oving": 7057,
      "symb": 7058,
      "findings": 7059,
      "technical": 7060,
      "facts": 7061,
      "connection": 7062,
      "conducted": 7063,
      "battery": 7064,
      "()": 7065,
      "65": 7066,
      "Ep": 7067,
      "Foot": 7068,
      "Hist": 7069,
      "fill": 7070,
      "wins": 7071,
      "##rist": 7072,
      "##b2": 7073,
      "##amental": 7074,
      "##aints": 7075,
      "resc": 7076,
      "##ava": 7077,
      "recru": 7078,
      "coast": 7079,
      "veget": 7080,
      "parliament": 7081,
      "handle": 7082,
      "publicly": 7083,
      "approved": 7084,
      "considering": 7085,
      "##onym": 7086,
      "guns": 7087,
      "communication": 7088,
      "survey": 7089,
      "Pakistan": 7090,
      "weren": 7091,
      "Lord": 7092,
      "dial": 7093,
      "hol": 7094,
      "zero": 7095,
      "##f9": 7096,
      "##under": 7097,
      "##SE": 7098,
      "reference": 7099,
      "##amie": 7100,
      "shape": 7101,
      "##ograp": 7102,
      "capable": 7103,
      "plane": 7104,
      "tested": 7105,
      "construct": 7106,
      "connected": 7107,
      "copy": 7108,
      "radical": 7109,
      "linked": 7110,
      "Ukraine": 7111,
      "CNN": 7112,
      "44": 7113,
      "Aff": 7114,
      "BE": 7115,
      "Luc": 7116,
      "cig": 7117,
      "faster": 7118,
      "mut": 7119,
      "nations": 7120,
      "tiny": 7121,
      "##the": 7122,
      "##aver": 7123,
      "##ena": 7124,
      "##edd": 7125,
      "##ican": 7126,
      "ongoing": 7127,
      "##agn": 7128,
      "##astructure": 7129,
      "assume": 7130,
      "minimum": 7131,
      "sets": 7132,
      "creation": 7133,
      "Plan": 7134,
      "nearby": 7135,
      "sky": 7136,
      "basically": 7137,
      "severe": 7138,
      "marijuana": 7139,
      "activists": 7140,
      "Polit": 7141,
      "declined": 7142,
      "opportunities": 7143,
      "Cast": 7144,
      "Rand": 7145,
      "pip": 7146,
      "##hy": 7147,
      "##uations": 7148,
      "##PG": 7149,
      "##KE": 7150,
      "spell": 7151,
      "compens": 7152,
      "guilty": 7153,
      "experiment": 7154,
      "protesters": 7155,
      "reportedly": 7156,
      "Barack": 7157,
      "urban": 7158,
      "obviously": 7159,
      "Jackson": 7160,
      "folks": 7161,
      "philosoph": 7162,
      "understood": 7163,
      "DO": 7164,
      "Energy": 7165,
      "Fort": 7166,
      "##tr": 7167,
      "##known": 7168,
      "##3e": 7169,
      "##erous": 7170,
      "##orry": 7171,
      "##abilities": 7172,
      "clin": 7173,
      "Still": 7174,
      "backed": 7175,
      "Sports": 7176,
      "emails": 7177,
      "causes": 7178,
      "combined": 7179,
      "domestic": 7180,
      "attempted": 7181,
      "Muslims": 7182,
      "taste": 7183,
      "Ast": 7184,
      "Braz": 7185,
      "Hy": 7186,
      "Hard": 7187,
      "Haw": 7188,
      "Land": 7189,
      "Oly": 7190,
      "eating": 7191,
      "##uated": 7192,
      "##++": 7193,
      "rein": 7194,
      "shift": 7195,
      "##kept": 7196,
      "button": 7197,
      "oblig": 7198,
      "pointed": 7199,
      "stands": 7200,
      "ordered": 7201,
      "violent": 7202,
      "Seattle": 7203,
      "label": 7204,
      "applications": 7205,
      "essentially": 7206,
      "District": 7207,
      "Av": 7208,
      "Brian": 7209,
      "CON": 7210,
      "FOR": 7211,
      "Gal": 7212,
      "Take": 7213,
      "dry": 7214,
      "ge": 7215,
      "marg": 7216,
      "vast": 7217,
      "##uous": 7218,
      "##astern": 7219,
      "hell": 7220,
      "##rip": 7221,
      "##ounded": 7222,
      "grab": 7223,
      "Real": 7224,
      "Reuters": 7225,
      "##azi": 7226,
      "Report": 7227,
      "kinds": 7228,
      "holds": 7229,
      "reasonable": 7230,
      "initially": 7231,
      "quarterback": 7232,
      "chairman": 7233,
      "Olymp": 7234,
      "Home": 7235,
      "SP": 7236,
      "nut": 7237,
      "##cy": 7238,
      "##pro": 7239,
      "##75": 7240,
      "##ingu": 7241,
      "tom": 7242,
      "##ionally": 7243,
      "##essor": 7244,
      "sugar": 7245,
      "Through": 7246,
      "universe": 7247,
      "Stan": 7248,
      "##aug": 7249,
      "##formation": 7250,
      "functions": 7251,
      "basket": 7252,
      "Steve": 7253,
      "immediate": 7254,
      "pictures": 7255,
      "baseball": 7256,
      "Labour": 7257,
      "vacc": 7258,
      "acknowled": 7259,
      "Arizona": 7260,
      "Dam": 7261,
      "LA": 7262,
      "pal": 7263,
      "wake": 7264,
      "##eah": 7265,
      "##ixt": 7266,
      "##lies": 7267,
      "##fd": 7268,
      "##IR": 7269,
      "##ato": 7270,
      "##ompl": 7271,
      "plot": 7272,
      "Stand": 7273,
      "armed": 7274,
      "Week": 7275,
      "2002": 7276,
      "efficient": 7277,
      "investors": 7278,
      "moves": 7279,
      "walked": 7280,
      "consistent": 7281,
      "route": 7282,
      "Africa": 7283,
      "scheme": 7284,
      "150": 7285,
      "43": 7286,
      "Navy": 7287,
      "bath": 7288,
      "pages": 7289,
      "tun": 7290,
      "##rd": 7291,
      "##illa": 7292,
      "consp": 7293,
      "Online": 7294,
      "factor": 7295,
      "passing": 7296,
      "friendly": 7297,
      "controls": 7298,
      "switch": 7299,
      "discussed": 7300,
      "hoping": 7301,
      "machines": 7302,
      "contrast": 7303,
      "pushed": 7304,
      "Ol": 7305,
      "View": 7306,
      "Year": 7307,
      "Zucker": 7308,
      "bodies": 7309,
      "egg": 7310,
      "wid": 7311,
      "##b5": 7312,
      "##iat": 7313,
      "##icide": 7314,
      "atmosp": 7315,
      "##rie": 7316,
      "excess": 7317,
      "units": 7318,
      "accompl": 7319,
      "strict": 7320,
      "classic": 7321,
      "receiving": 7322,
      "##ronic": 7323,
      "Senator": 7324,
      "entered": 7325,
      "missed": 7326,
      "substant": 7327,
      "##oshop": 7328,
      "precise": 7329,
      "Open": 7330,
      "circumstances": 7331,
      "AF": 7332,
      "##LO": 7333,
      "##enture": 7334,
      "forget": 7335,
      "##unction": 7336,
      "##ockey": 7337,
      "##aped": 7338,
      "doctor": 7339,
      "enemy": 7340,
      "##ordin": 7341,
      "incor": 7342,
      "overse": 7343,
      "##ulture": 7344,
      "##angel": 7345,
      "ends": 7346,
      "articles": 7347,
      "glass": 7348,
      "elimin": 7349,
      "typical": 7350,
      "constit": 7351,
      "Policy": 7352,
      "creative": 7353,
      "Grand": 7354,
      "##burg": 7355,
      "/>": 7356,
      "</": 7357,
      "Bell": 7358,
      "Click": 7359,
      "Gh": 7360,
      "jail": 7361,
      "##uable": 7362,
      "##eness": 7363,
      "##essed": 7364,
      "noticed": 7365,
      "cooper": 7366,
      "aftern": 7367,
      "consc": 7368,
      "films": 7369,
      "lots": 7370,
      "##apping": 7371,
      "deeply": 7372,
      "domin": 7373,
      "walking": 7374,
      "essential": 7375,
      "liberal": 7376,
      "Romanian": 7377,
      "crazy": 7378,
      "Jordan": 7379,
      "Sar": 7380,
      "favour": 7381,
      "lit": 7382,
      "lock": 7383,
      "##a1": 7384,
      "##Tube": 7385,
      "##VER": 7386,
      "##aled": 7387,
      "Android": 7388,
      "effici": 7389,
      "differences": 7390,
      "depth": 7391,
      "confident": 7392,
      "prompt": 7393,
      "Carl": 7394,
      "potentially": 7395,
      "consumer": 7396,
      "license": 7397,
      "split": 7398,
      "institutions": 7399,
      "Brazil": 7400,
      "Avenue": 7401,
      "Bus": 7402,
      "Fam": 7403,
      "Sum": 7404,
      "Tok": 7405,
      "##a2": 7406,
      "##lines": 7407,
      "##uration": 7408,
      "##amin": 7409,
      "abandon": 7410,
      "##acking": 7411,
      "##apse": 7412,
      "##ureau": 7413,
      "##raham": 7414,
      "apps": 7415,
      "anywhere": 7416,
      "YouTube": 7417,
      "advanced": 7418,
      "winter": 7419,
      "typically": 7420,
      "visual": 7421,
      "suffered": 7422,
      "panel": 7423,
      "infrastructure": 7424,
      "Gall": 7425,
      "Kong": 7426,
      "Men": 7427,
      "ment": 7428,
      "##och": 7429,
      "##greg": 7430,
      "##ua": 7431,
      "##asp": 7432,
      "##icial": 7433,
      "stood": 7434,
      "shar": 7435,
      "prote": 7436,
      "everybody": 7437,
      "Ann": 7438,
      "governor": 7439,
      "Review": 7440,
      "guide": 7441,
      "buildings": 7442,
      "marketing": 7443,
      "closely": 7444,
      "accepted": 7445,
      "Georgia": 7446,
      "inspired": 7447,
      "Attorney": 7448,
      "scheduled": 7449,
      "reduced": 7450,
      "archit": 7451,
      "NHL": 7452,
      "600": 7453,
      "Brew": 7454,
      "MA": 7455,
      "Mur": 7456,
      "Night": 7457,
      "batt": 7458,
      "journey": 7459,
      "lie": 7460,
      "sought": 7461,
      "tact": 7462,
      "##ship": 7463,
      "##dc": 7464,
      "##CE": 7465,
      "##real": 7466,
      "##emies": 7467,
      "##ules": 7468,
      "chose": 7469,
      "outr": 7470,
      "neut": 7471,
      "scr": 7472,
      "flat": 7473,
      "corruption": 7474,
      "breaking": 7475,
      "Develop": 7476,
      "announcement": 7477,
      "injured": 7478,
      "excited": 7479,
      "Disorders": 7480,
      "secretary": 7481,
      "updates": 7482,
      "communications": 7483,
      "opposite": 7484,
      "virtual": 7485,
      "controversial": 7486,
      "cigar": 7487,
      "Did": 7488,
      "Gre": 7489,
      "IP": 7490,
      "Ill": 7491,
      "Love": 7492,
      "bac": 7493,
      "##ao": 7494,
      "##DA": 7495,
      "##ita": 7496,
      "##icit": 7497,
      "fort": 7498,
      "pra": 7499,
      "trick": 7500,
      "##ours": 7501,
      "eval": 7502,
      "reput": 7503,
      "accur": 7504,
      "brings": 7505,
      "0324": 7506,
      "asset": 7507,
      "regime": 7508,
      "carbon": 7509,
      "warning": 7510,
      "config": 7511,
      "campus": 7512,
      "advice": 7513,
      "fundamental": 7514,
      "exciting": 7515,
      "suffering": 7516,
      "Defense": 7517,
      "regulations": 7518,
      "baby": 7519,
      "Colorado": 7520,
      "afternoon": 7521,
      "Rights": 7522,
      "Ty": 7523,
      "Yan": 7524,
      "math": 7525,
      "##uce": 7526,
      "##LD": 7527,
      "##DP": 7528,
      "##iracy": 7529,
      "alcohol": 7530,
      "comprom": 7531,
      "usual": 7532,
      "Str": 7533,
      "perman": 7534,
      "014": 7535,
      "crimes": 7536,
      "subscrib": 7537,
      "transition": 7538,
      "mainstream": 7539,
      "customer": 7540,
      "struck": 7541,
      "magazine": 7542,
      "historical": 7543,
      "Zuckerberg": 7544,
      "56": 7545,
      "CIA": 7546,
      "Lat": 7547,
      "Water": 7548,
      "cart": 7549,
      "wal": 7550,
      "yield": 7551,
      "##b1": 7552,
      "##76": 7553,
      "##gor": 7554,
      "##wr": 7555,
      "##inent": 7556,
      "##oral": 7557,
      "##rog": 7558,
      "pray": 7559,
      "unknown": 7560,
      "twitter": 7561,
      "0326": 7562,
      "warming": 7563,
      "retail": 7564,
      "locations": 7565,
      "aircraft": 7566,
      "argue": 7567,
      "competitive": 7568,
      "replace": 7569,
      "square": 7570,
      "watched": 7571,
      "Atlanta": 7572,
      "rejected": 7573,
      "ABV": 7574,
      "Video": 7575,
      "excellent": 7576,
      "46": 7577,
      "Ap": 7578,
      "Eric": 7579,
      "LGB": 7580,
      "NAS": 7581,
      "af": 7582,
      "dinner": 7583,
      "lies": 7584,
      "##mates": 7585,
      "##74": 7586,
      "input": 7587,
      "##icism": 7588,
      "##ller": 7589,
      "##ework": 7590,
      "ourselves": 7591,
      "branch": 7592,
      "subs": 7593,
      "skill": 7594,
      "claiming": 7595,
      "represents": 7596,
      "optim": 7597,
      "injuries": 7598,
      "##utorial": 7599,
      "comfortable": 7600,
      "800": 7601,
      "End": 7602,
      "Econom": 7603,
      "Nich": 7604,
      "mand": 7605,
      "mort": 7606,
      "##96": 7607,
      "formed": 7608,
      "##unning": 7609,
      "##uster": 7610,
      ".\"[": 7611,
      "assets": 7612,
      "##ellow": 7613,
      "extent": 7614,
      "Coomer": 7615,
      "selection": 7616,
      "colleagues": 7617,
      "dedicated": 7618,
      "Foreign": 7619,
      "Dig": 7620,
      "Major": 7621,
      "ble": 7622,
      "mir": 7623,
      "wire": 7624,
      "##sen": 7625,
      "##equ": 7626,
      "##iro": 7627,
      "##ulations": 7628,
      "manage": 7629,
      "accomp": 7630,
      "##ashion": 7631,
      "techniques": 7632,
      "constant": 7633,
      "faced": 7634,
      "moral": 7635,
      "illust": 7636,
      "disappear": 7637,
      "pushing": 7638,
      ".:": 7639,
      "Bon": 7640,
      "Card": 7641,
      "Curr": 7642,
      "Fre": 7643,
      "Nob": 7644,
      "aid": 7645,
      "gall": 7646,
      "##gment": 7647,
      "##PN": 7648,
      "##ora": 7649,
      "##uting": 7650,
      "adds": 7651,
      "0154": 7652,
      "subt": 7653,
      "strange": 7654,
      "goods": 7655,
      "confront": 7656,
      "cutting": 7657,
      "##iscal": 7658,
      "household": 7659,
      "##iquid": 7660,
      "sanctions": 7661,
      "drinking": 7662,
      "Siri": 7663,
      "Stephen": 7664,
      "Director": 7665,
      "Nichol": 7666,
      "BS": 7667,
      "Dri": 7668,
      "Ell": 7669,
      "Ir": 7670,
      "PD": 7671,
      "Prem": 7672,
      "es": 7673,
      "rum": 7674,
      "sick": 7675,
      "tor": 7676,
      "##unte": 7677,
      "##enda": 7678,
      "##oked": 7679,
      "intel": 7680,
      "0153": 7681,
      "default": 7682,
      "flag": 7683,
      "shouldn": 7684,
      "Scot": 7685,
      "approx": 7686,
      "empty": 7687,
      "System": 7688,
      "strongly": 7689,
      "industrial": 7690,
      "thousand": 7691,
      "defeat": 7692,
      "Holly": 7693,
      "basketball": 7694,
      "SO": 7695,
      "Sant": 7696,
      "fake": 7697,
      "row": 7698,
      "session": 7699,
      "tree": 7700,
      "##anged": 7701,
      "0322": 7702,
      "termin": 7703,
      "centre": 7704,
      "movies": 7705,
      "##exp": 7706,
      "describe": 7707,
      "initi": 7708,
      "Romney": 7709,
      "loan": 7710,
      "package": 7711,
      "broadcast": 7712,
      "penal": 7713,
      "##ILL": 7714,
      "Judge": 7715,
      "renew": 7716,
      "destroyed": 7717,
      "Lebanon": 7718,
      "athlet": 7719,
      "LGBT": 7720,
      "Best": 7721,
      "GM": 7722,
      "Lew": 7723,
      "bid": 7724,
      "kil": 7725,
      "ox": 7726,
      "##4f": 7727,
      "##west": 7728,
      "##),": 7729,
      "##onic": 7730,
      "##itors": 7731,
      "##season": 7732,
      "sees": 7733,
      "bright": 7734,
      "##ocket": 7735,
      "subsequ": 7736,
      "string": 7737,
      "terrible": 7738,
      "passion": 7739,
      "Orig": 7740,
      "Abb": 7741,
      "immigration": 7742,
      "emerged": 7743,
      "allegations": 7744,
      "literally": 7745,
      "somewhat": 7746,
      "consequences": 7747,
      "intellect": 7748,
      "06": 7749,
      "51": 7750,
      "57": 7751,
      "Has": 7752,
      "Josh": 7753,
      "mouth": 7754,
      "roster": 7755,
      "tourn": 7756,
      "##ko": 7757,
      "##gent": 7758,
      "##EW": 7759,
      "##inny": 7760,
      "##epst": 7761,
      "resident": 7762,
      "acts": 7763,
      "##efully": 7764,
      "Short": 7765,
      "highlight": 7766,
      "Adam": 7767,
      "relevant": 7768,
      "increases": 7769,
      "listed": 7770,
      "facility": 7771,
      "Christmas": 7772,
      "voted": 7773,
      "selected": 7774,
      "admitted": 7775,
      "struggle": 7776,
      "Network": 7777,
      "orders": 7778,
      "allegedly": 7779,
      "crypt": 7780,
      "Call": 7781,
      "IB": 7782,
      "Make": 7783,
      "Oak": 7784,
      "craft": 7785,
      "loyal": 7786,
      "pump": 7787,
      "ring": 7788,
      "rub": 7789,
      "##net": 7790,
      "##oom": 7791,
      "##kh": 7792,
      "##list": 7793,
      "##hew": 7794,
      "print": 7795,
      "pled": 7796,
      "##ansas": 7797,
      "contains": 7798,
      "finance": 7799,
      "Albert": 7800,
      "medium": 7801,
      "fewer": 7802,
      "detect": 7803,
      "estate": 7804,
      "##iamond": 7805,
      "Kevin": 7806,
      "\".[": 7807,
      "coup": 7808,
      "necessarily": 7809,
      "relationships": 7810,
      "cameras": 7811,
      "repeatedly": 7812,
      "##abinet": 7813,
      "territory": 7814,
      "coffee": 7815,
      "##epstakes": 7816,
      "ABC": 7817,
      "Disc": 7818,
      "Miller": 7819,
      "Nintend": 7820,
      "Women": 7821,
      "bon": 7822,
      "fashion": 7823,
      "gang": 7824,
      "ride": 7825,
      "util": 7826,
      "##eor": 7827,
      "##rid": 7828,
      "##b6": 7829,
      "##kin": 7830,
      "##hab": 7831,
      "##8a": 7832,
      "##RI": 7833,
      "##arters": 7834,
      "##icul": 7835,
      "stadium": 7836,
      "##opo": 7837,
      "franch": 7838,
      "##iform": 7839,
      "##acks": 7840,
      "trigger": 7841,
      "intent": 7842,
      "sole": 7843,
      "##ampion": 7844,
      "smooth": 7845,
      "embr": 7846,
      "##ocratic": 7847,
      "arrest": 7848,
      "domain": 7849,
      "heavily": 7850,
      "slowly": 7851,
      "scenes": 7852,
      "teaching": 7853,
      "Wilson": 7854,
      "HAVE": 7855,
      "',": 7856,
      "BM": 7857,
      "Bas": 7858,
      "CL": 7859,
      "Rog": 7860,
      "Test": 7861,
      "Tony": 7862,
      "Wood": 7863,
      "Youn": 7864,
      "pitch": 7865,
      "rival": 7866,
      "##mers": 7867,
      "##vania": 7868,
      "##8e": 7869,
      "conver": 7870,
      "acting": 7871,
      "1980": 7872,
      "guid": 7873,
      "readers": 7874,
      "importance": 7875,
      "McK": 7876,
      "performed": 7877,
      "Next": 7878,
      "Contin": 7879,
      "fairly": 7880,
      "Company": 7881,
      "surrounding": 7882,
      "##sembly": 7883,
      "Die": 7884,
      "NBA": 7885,
      "].": 7886,
      "dynam": 7887,
      "tutorial": 7888,
      "’.": 7889,
      "##lock": 7890,
      "##OO": 7891,
      "toler": 7892,
      "storage": 7893,
      "Child": 7894,
      "somebody": 7895,
      "somehow": 7896,
      "##ucks": 7897,
      "accus": 7898,
      "defined": 7899,
      "signing": 7900,
      "##ternal": 7901,
      "Island": 7902,
      "numerous": 7903,
      "concent": 7904,
      "statements": 7905,
      "keeps": 7906,
      "##iami": 7907,
      "employee": 7908,
      "Davis": 7909,
      "threats": 7910,
      "surprised": 7911,
      "targeted": 7912,
      "lawsuit": 7913,
      "##interest": 7914,
      "rarely": 7915,
      "succeed": 7916,
      "Victor": 7917,
      "Yanke": 7918,
      "Nintendo": 7919,
      "Coll": 7920,
      "Kell": 7921,
      "Mot": 7922,
      "Pass": 7923,
      "Sea": 7924,
      "Ten": 7925,
      "Ut": 7926,
      "dress": 7927,
      "fought": 7928,
      "pin": 7929,
      "rising": 7930,
      "vice": 7931,
      "##ais": 7932,
      "##pet": 7933,
      "##onna": 7934,
      "##ala": 7935,
      "##osition": 7936,
      "##ocation": 7937,
      "unw": 7938,
      "agents": 7939,
      "monop": 7940,
      "ideal": 7941,
      "attacked": 7942,
      "##enger": 7943,
      "##ERE": 7944,
      "newslet": 7945,
      "younger": 7946,
      "married": 7947,
      "Joseph": 7948,
      "exercise": 7949,
      "roughly": 7950,
      "Iow": 7951,
      "Miami": 7952,
      "Old": 7953,
      "Rick": 7954,
      "Van": 7955,
      "bunch": 7956,
      "ok": 7957,
      "##tion": 7958,
      "##itarian": 7959,
      "##utch": 7960,
      "##olve": 7961,
      "##aine": 7962,
      "alt": 7963,
      "intention": 7964,
      "grant": 7965,
      "Ash": 7966,
      "Arm": 7967,
      "personnel": 7968,
      "##ietic": 7969,
      "protected": 7970,
      "elite": 7971,
      "##atured": 7972,
      "##ennes": 7973,
      "causing": 7974,
      "improved": 7975,
      "expression": 7976,
      "photograph": 7977,
      "Global": 7978,
      "McCain": 7979,
      "delivered": 7980,
      "Check": 7981,
      "routine": 7982,
      "Valley": 7983,
      "distinction": 7984,
      "crucial": 7985,
      "commitment": 7986,
      "perspective": 7987,
      "!!!": 7988,
      "Give": 7989,
      "Oper": 7990,
      "Royal": 7991,
      "Wild": 7992,
      "hidden": 7993,
      "southern": 7994,
      "##oil": 7995,
      "thick": 7996,
      "##ulin": 7997,
      "Thus": 7998,
      "hero": 7999,
      "decline": 8000,
      "writ": 8001,
      "earned": 8002,
      "Space": 8003,
      "extended": 8004,
      "posts": 8005,
      "hardware": 8006,
      "Minnes": 8007,
      "trading": 8008,
      "representative": 8009,
      "talent": 8010,
      "terrorist": 8011,
      "distribution": 8012,
      "analyst": 8013,
      "incredibly": 8014,
      "Gaza": 8015,
      "##opoietic": 8016,
      "Cur": 8017,
      "Jr": 8018,
      "Kh": 8019,
      "OK": 8020,
      "Ray": 8021,
      "Sn": 8022,
      "Turn": 8023,
      "Vis": 8024,
      "bike": 8025,
      "bare": 8026,
      "rally": 8027,
      "tank": 8028,
      "wave": 8029,
      "##uits": 8030,
      "##erial": 8031,
      "##ador": 8032,
      "##ighter": 8033,
      "deals": 8034,
      "dozen": 8035,
      "allies": 8036,
      "enemies": 8037,
      "exposed": 8038,
      "##duce": 8039,
      "smoke": 8040,
      "offices": 8041,
      "puts": 8042,
      "classes": 8043,
      "receiver": 8044,
      "##standing": 8045,
      "Supp": 8046,
      "ISIS": 8047,
      "confirm": 8048,
      "carrying": 8049,
      "ancient": 8050,
      "withdraw": 8051,
      "Cruz": 8052,
      "Educ": 8053,
      "Hung": 8054,
      "Lee": 8055,
      "PM": 8056,
      "boot": 8057,
      "fiscal": 8058,
      "latter": 8059,
      "moon": 8060,
      "northern": 8061,
      "phen": 8062,
      "rom": 8063,
      "rus": 8064,
      "aside": 8065,
      "congress": 8066,
      "##eman": 8067,
      "fraud": 8068,
      "##umer": 8069,
      "shif": 8070,
      "spark": 8071,
      "enth": 8072,
      "components": 8073,
      "##icket": 8074,
      "decre": 8075,
      "blame": 8076,
      "Anderson": 8077,
      "regional": 8078,
      "Spring": 8079,
      "officially": 8080,
      "colon": 8081,
      "personally": 8082,
      "harder": 8083,
      "valuable": 8084,
      "##ORE": 8085,
      "totally": 8086,
      "referred": 8087,
      "ultimate": 8088,
      "cycle": 8089,
      "nomine": 8090,
      "Following": 8091,
      "detailed": 8092,
      "somewhere": 8093,
      "vulnerable": 8094,
      "Sometimes": 8095,
      "Minnesota": 8096,
      "($": 8097,
      "Games": 8098,
      "Snow": 8099,
      "UP": 8100,
      "dipl": 8101,
      "sear": 8102,
      "##4c": 8103,
      "##hors": 8104,
      "##ura": 8105,
      "asks": 8106,
      "##ems": 8107,
      "weird": 8108,
      "##ria": 8109,
      "contem": 8110,
      "##izer": 8111,
      "Championship": 8112,
      "perce": 8113,
      "reporter": 8114,
      "1970": 8115,
      "blind": 8116,
      "##place": 8117,
      "organized": 8118,
      "drawn": 8119,
      "replaced": 8120,
      "escape": 8121,
      "Hollywood": 8122,
      ",[": 8123,
      "Cook": 8124,
      "Given": 8125,
      "Ha": 8126,
      "Human": 8127,
      "Tib": 8128,
      "ast": 8129,
      "fasc": 8130,
      "rig": 8131,
      "##fc": 8132,
      "##itals": 8133,
      "stable": 8134,
      "aspect": 8135,
      "##emen": 8136,
      "comed": 8137,
      "output": 8138,
      "upgr": 8139,
      "agencies": 8140,
      "##weight": 8141,
      "Brother": 8142,
      "explan": 8143,
      "limits": 8144,
      "##ART": 8145,
      "messages": 8146,
      "cyber": 8147,
      "welcome": 8148,
      "schedule": 8149,
      "registered": 8150,
      "Pacific": 8151,
      "##usalem": 8152,
      "architect": 8153,
      "64": 8154,
      "Bang": 8155,
      "Hong": 8156,
      "Have": 8157,
      "Nick": 8158,
      "SE": 8159,
      "Win": 8160,
      "diet": 8161,
      "flying": 8162,
      "sister": 8163,
      "waste": 8164,
      "alive": 8165,
      "chicken": 8166,
      "##endment": 8167,
      "Ins": 8168,
      "Asia": 8169,
      "phase": 8170,
      "Brad": 8171,
      "mainly": 8172,
      "percentage": 8173,
      "approval": 8174,
      "constantly": 8175,
      "promote": 8176,
      "Without": 8177,
      "alongside": 8178,
      "risks": 8179,
      "ruled": 8180,
      "producing": 8181,
      "volunte": 8182,
      "Jerusalem": 8183,
      "teacher": 8184,
      "lawyers": 8185,
      "Photoshop": 8186,
      "Putin": 8187,
      "Spartan": 8188,
      "atmosphere": 8189,
      "reputation": 8190,
      "Ford": 8191,
      "Hay": 8192,
      "Mic": 8193,
      "Nations": 8194,
      "Pinterest": 8195,
      "Such": 8196,
      "Southern": 8197,
      "eld": 8198,
      "gear": 8199,
      "mine": 8200,
      "##ML": 8201,
      "isol": 8202,
      "##illy": 8203,
      "00000006": 8204,
      "proof": 8205,
      "##umber": 8206,
      "\u0000\u0000\u0000\u0000\u0000\u0000\u0000\u0000\u0000\u0000\u0000\u0000\u0000\u0000\u0000\u0000\u0000\u0000\u0000\u0000\u0000\u0000\u0000\u0000\u0000\u0000\u0000\u0000\u0000\u0000\u0000\u0000\u0000\u0000\u0000\u0000\u0000\u0000\u0000\u0000\u0000\u0000\u0000\u0000\u0000\u0000\u0000\u0000\u0000\u0000\u0000\u0000\u0000\u0000\u0000\u0000\u0000\u0000\u0000\u0000\u0000\u0000\u0000\u0000\u0000\u0000\u0000\u0000\u0000\u0000\u0000\u0000\u0000\u0000\u0000\u0000\u0000\u0000\u0000\u0000\u0000\u0000\u0000\u0000\u0000\u0000\u0000\u0000\u0000\u0000\u0000\u0000\u0000\u0000\u0000\u0000\u0000\u0000\u0000\u0000\u0000\u0000\u0000\u0000\u0000\u0000\u0000\u0000\u0000\u0000\u0000\u0000\u0000\u0000\u0000\u0000\u0000\u0000\u0000\u0000\u0000\u0000\u0000\u0000\u0000\u0000\u0000\u0000\u0000\u0000\u0000\u0000\u0000\u0000\u0000\u0000\u0000\u0000\u0000\u0000\u0000\u0000\u0000\u0000\u0000\u0000\u0000\u0000\u0000\u0000\u0000\u0000\u0000\u0000\u0000\u0000\u0000\u0000\u0000\u0000\u0000\u0000\u0000\u0000\u0000\u0000\u0000\u0000\u0000\u0000\u0000\u0000\u0000\u0000\u0000\u0000\u0000\u0000\u0000\u0000\u0000\u0000\u0000\u0000\u0000\u0000\u0000\u0000\u0000\u0000\u0000\u0000\u0000": 8207,
      "Trade": 8208,
      "remote": 8209,
      "studio": 8210,
      "Span": 8211,
      "authors": 8212,
      "dealing": 8213,
      "Iranian": 8214,
      "perfectly": 8215,
      "##hetic": 8216,
      "houses": 8217,
      "merely": 8218,
      "Bull": 8219,
      "DC": 8220,
      "Lis": 8221,
      "crop": 8222,
      "##bles": 8223,
      "##ker": 8224,
      "##hell": 8225,
      "##orse": 8226,
      "##arity": 8227,
      "##illance": 8228,
      "##elines": 8229,
      "deleg": 8230,
      "upcoming": 8231,
      "uncom": 8232,
      "advert": 8233,
      "cloud": 8234,
      "##ibl": 8235,
      "##obe": 8236,
      "##anges": 8237,
      "attended": 8238,
      "lawmakers": 8239,
      "cheap": 8240,
      "memor": 8241,
      "promise": 8242,
      "poly": 8243,
      "deaths": 8244,
      "represented": 8245,
      "Dragon": 8246,
      "division": 8247,
      "magic": 8248,
      "Golden": 8249,
      "Jersey": 8250,
      "scenario": 8251,
      "unlikely": 8252,
      "academic": 8253,
      "53": 8254,
      "Mat": 8255,
      "Pen": 8256,
      "Viet": 8257,
      "king": 8258,
      "sid": 8259,
      "sending": 8260,
      "inher": 8261,
      "##rell": 8262,
      "bear": 8263,
      "##owed": 8264,
      "component": 8265,
      "disag": 8266,
      "##ologist": 8267,
      "realized": 8268,
      "##aze": 8269,
      "entit": 8270,
      "letters": 8271,
      "Indeed": 8272,
      "Conf": 8273,
      "meetings": 8274,
      "properly": 8275,
      "properties": 8276,
      "Parliament": 8277,
      "falling": 8278,
      "Rivera": 8279,
      "Columbia": 8280,
      "symbol": 8281,
      "54": 8282,
      "700": 8283,
      "Ale": 8284,
      "Est": 8285,
      "Hop": 8286,
      "SU": 8287,
      "Wat": 8288,
      "duty": 8289,
      "##nam": 8290,
      "##71": 8291,
      "##72": 8292,
      "##vy": 8293,
      "##oration": 8294,
      "##orne": 8295,
      "retain": 8296,
      "##ads": 8297,
      "##rozen": 8298,
      "enorm": 8299,
      "evolution": 8300,
      "crash": 8301,
      "desper": 8302,
      "retire": 8303,
      "facilities": 8304,
      "Coast": 8305,
      "anticip": 8306,
      "Season": 8307,
      "answers": 8308,
      "motion": 8309,
      "collapse": 8310,
      "purposes": 8311,
      "distinct": 8312,
      "coalition": 8313,
      "comparison": 8314,
      "Strait": 8315,
      "Ah": 8316,
      "Civil": 8317,
      "Eastern": 8318,
      "ju": 8319,
      "ori": 8320,
      "’,": 8321,
      "##mond": 8322,
      "##92": 8323,
      "##MA": 8324,
      "##stone": 8325,
      "##vey": 8326,
      "conven": 8327,
      "##apes": 8328,
      "adult": 8329,
      "agenda": 8330,
      "anyway": 8331,
      "##ensity": 8332,
      "attrib": 8333,
      "knowing": 8334,
      "##gred": 8335,
      "finds": 8336,
      "##overty": 8337,
      "artist": 8338,
      "winner": 8339,
      "payments": 8340,
      "promised": 8341,
      "1999": 8342,
      "Among": 8343,
      "##OUR": 8344,
      "##regon": 8345,
      "racist": 8346,
      "Finally": 8347,
      "mistake": 8348,
      "manufactur": 8349,
      "mechanism": 8350,
      "legitimate": 8351,
      "stretch": 8352,
      "Young": 8353,
      "95": 8354,
      "Bat": 8355,
      "CO": 8356,
      "Come": 8357,
      "Lim": 8358,
      "Was": 8359,
      "raw": 8360,
      "##fa": 8361,
      "##4d": 8362,
      "##TER": 8363,
      "stores": 8364,
      "##andal": 8365,
      "##abet": 8366,
      "saved": 8367,
      "amounts": 8368,
[...]
